#include "./include/model.h"
#include "./ESSensor/include/es_sensor.h"
#include "./Global/include/global.h"

const unsigned char model_tflite[] = {
    0x1c, 0x00, 0x00, 0x00, 0x54, 0x46, 0x4c, 0x33, 0x14, 0x00, 0x20, 0x00,
  0x1c, 0x00, 0x18, 0x00, 0x14, 0x00, 0x10, 0x00, 0x0c, 0x00, 0x00, 0x00,
  0x08, 0x00, 0x04, 0x00, 0x14, 0x00, 0x00, 0x00, 0x1c, 0x00, 0x00, 0x00,
  0x98, 0x00, 0x00, 0x00, 0xf0, 0x00, 0x00, 0x00, 0x3c, 0x43, 0x00, 0x00,
  0x4c, 0x43, 0x00, 0x00, 0xfc, 0x48, 0x00, 0x00, 0x03, 0x00, 0x00, 0x00,
  0x01, 0x00, 0x00, 0x00, 0x10, 0x00, 0x00, 0x00, 0x00, 0x00, 0x0a, 0x00,
  0x10, 0x00, 0x0c, 0x00, 0x08, 0x00, 0x04, 0x00, 0x0a, 0x00, 0x00, 0x00,
  0x0c, 0x00, 0x00, 0x00, 0x1c, 0x00, 0x00, 0x00, 0x3c, 0x00, 0x00, 0x00,
  0x0f, 0x00, 0x00, 0x00, 0x73, 0x65, 0x72, 0x76, 0x69, 0x6e, 0x67, 0x5f,
  0x64, 0x65, 0x66, 0x61, 0x75, 0x6c, 0x74, 0x00, 0x01, 0x00, 0x00, 0x00,
  0x04, 0x00, 0x00, 0x00, 0x90, 0xff, 0xff, 0xff, 0x0b, 0x00, 0x00, 0x00,
  0x04, 0x00, 0x00, 0x00, 0x08, 0x00, 0x00, 0x00, 0x6f, 0x75, 0x74, 0x70,
  0x75, 0x74, 0x5f, 0x30, 0x00, 0x00, 0x00, 0x00, 0x01, 0x00, 0x00, 0x00,
  0x04, 0x00, 0x00, 0x00, 0xd2, 0xbe, 0xff, 0xff, 0x04, 0x00, 0x00, 0x00,
  0x0d, 0x00, 0x00, 0x00, 0x69, 0x6e, 0x70, 0x75, 0x74, 0x5f, 0x6c, 0x61,
  0x79, 0x65, 0x72, 0x5f, 0x32, 0x00, 0x00, 0x00, 0x02, 0x00, 0x00, 0x00,
  0x34, 0x00, 0x00, 0x00, 0x04, 0x00, 0x00, 0x00, 0xdc, 0xff, 0xff, 0xff,
  0x0e, 0x00, 0x00, 0x00, 0x04, 0x00, 0x00, 0x00, 0x13, 0x00, 0x00, 0x00,
  0x43, 0x4f, 0x4e, 0x56, 0x45, 0x52, 0x53, 0x49, 0x4f, 0x4e, 0x5f, 0x4d,
  0x45, 0x54, 0x41, 0x44, 0x41, 0x54, 0x41, 0x00, 0x08, 0x00, 0x0c, 0x00,
  0x08, 0x00, 0x04, 0x00, 0x08, 0x00, 0x00, 0x00, 0x0d, 0x00, 0x00, 0x00,
  0x04, 0x00, 0x00, 0x00, 0x13, 0x00, 0x00, 0x00, 0x6d, 0x69, 0x6e, 0x5f,
  0x72, 0x75, 0x6e, 0x74, 0x69, 0x6d, 0x65, 0x5f, 0x76, 0x65, 0x72, 0x73,
  0x69, 0x6f, 0x6e, 0x00, 0x0f, 0x00, 0x00, 0x00, 0x48, 0x42, 0x00, 0x00,
  0x40, 0x42, 0x00, 0x00, 0xb0, 0x40, 0x00, 0x00, 0x98, 0x20, 0x00, 0x00,
  0x88, 0x02, 0x00, 0x00, 0x6c, 0x02, 0x00, 0x00, 0xdc, 0x01, 0x00, 0x00,
  0xcc, 0x00, 0x00, 0x00, 0xb4, 0x00, 0x00, 0x00, 0xac, 0x00, 0x00, 0x00,
  0xa4, 0x00, 0x00, 0x00, 0x9c, 0x00, 0x00, 0x00, 0x94, 0x00, 0x00, 0x00,
  0x74, 0x00, 0x00, 0x00, 0x04, 0x00, 0x00, 0x00, 0x8a, 0xbf, 0xff, 0xff,
  0x04, 0x00, 0x00, 0x00, 0x60, 0x00, 0x00, 0x00, 0x10, 0x00, 0x00, 0x00,
  0x00, 0x00, 0x00, 0x00, 0x08, 0x00, 0x0e, 0x00, 0x08, 0x00, 0x04, 0x00,
  0x08, 0x00, 0x00, 0x00, 0x10, 0x00, 0x00, 0x00, 0x24, 0x00, 0x00, 0x00,
  0x00, 0x00, 0x06, 0x00, 0x08, 0x00, 0x04, 0x00, 0x06, 0x00, 0x00, 0x00,
  0x04, 0x00, 0x00, 0x00, 0x00, 0x00, 0x00, 0x00, 0x0c, 0x00, 0x18, 0x00,
  0x14, 0x00, 0x10, 0x00, 0x0c, 0x00, 0x04, 0x00, 0x0c, 0x00, 0x00, 0x00,
  0x7e, 0xee, 0x70, 0x2d, 0x15, 0xc3, 0x5a, 0x93, 0x02, 0x00, 0x00, 0x00,
  0x02, 0x00, 0x00, 0x00, 0x04, 0x00, 0x00, 0x00, 0x06, 0x00, 0x00, 0x00,
  0x32, 0x2e, 0x31, 0x38, 0x2e, 0x30, 0x00, 0x00, 0xf6, 0xbf, 0xff, 0xff,
  0x04, 0x00, 0x00, 0x00, 0x10, 0x00, 0x00, 0x00, 0x31, 0x2e, 0x35, 0x2e,
  0x30, 0x00, 0x00, 0x00, 0x00, 0x00, 0x00, 0x00, 0x00, 0x00, 0x00, 0x00,
  0xec, 0xb8, 0xff, 0xff, 0xf0, 0xb8, 0xff, 0xff, 0xf4, 0xb8, 0xff, 0xff,
  0xf8, 0xb8, 0xff, 0xff, 0x22, 0xc0, 0xff, 0xff, 0x04, 0x00, 0x00, 0x00,
  0x08, 0x00, 0x00, 0x00, 0xff, 0xff, 0xff, 0xff, 0x1e, 0x00, 0x00, 0x00,
  0x36, 0xc0, 0xff, 0xff, 0x04, 0x00, 0x00, 0x00, 0x00, 0x01, 0x00, 0x00,
  0x12, 0xdc, 0x20, 0xbd, 0xd2, 0x6f, 0x2a, 0x3c, 0x72, 0x3f, 0xab, 0x3b,
  0xc1, 0x1e, 0x11, 0x3c, 0x88, 0x12, 0x80, 0xbc, 0x61, 0x2e, 0x9f, 0xbc,
  0xae, 0xfc, 0x36, 0x3d, 0xc6, 0x92, 0xe2, 0x3b, 0xd0, 0xf6, 0x70, 0xbc,
  0x5a, 0x85, 0xac, 0x3d, 0x69, 0xa8, 0xbb, 0xbc, 0x3e, 0x69, 0xf5, 0xbc,
  0x9b, 0x2a, 0x5e, 0xbd, 0xfd, 0xf3, 0xb5, 0xbc, 0xe0, 0x20, 0x51, 0x3b,
  0x22, 0x23, 0xc8, 0xbc, 0x00, 0x00, 0x00, 0x00, 0x6a, 0x4b, 0x26, 0xbd,
  0xad, 0xeb, 0x76, 0xbd, 0x7e, 0x6f, 0xda, 0x3a, 0x3e, 0xf2, 0x04, 0xbd,
  0x7e, 0xd1, 0x76, 0xbc, 0xf0, 0x3d, 0x2f, 0xbd, 0x55, 0x46, 0x8d, 0x3c,
  0xea, 0xdf, 0xa7, 0xbc, 0x4c, 0x6e, 0xaf, 0x3c, 0xb7, 0x24, 0xcd, 0xbc,
  0x2d, 0xf8, 0x26, 0x3d, 0x03, 0xab, 0xe4, 0xbb, 0x13, 0x68, 0x68, 0x3b,
  0x52, 0xb1, 0xf6, 0xba, 0xe9, 0x14, 0x76, 0xbd, 0x9f, 0x2d, 0xcb, 0x3c,
  0xe8, 0x15, 0x5f, 0xbc, 0x90, 0x65, 0xcc, 0x3c, 0x90, 0x07, 0x06, 0xbd,
  0x42, 0x39, 0xa6, 0x3c, 0xab, 0xe4, 0x36, 0xbd, 0x05, 0x14, 0xbe, 0xbc,
  0xcc, 0xa8, 0xdf, 0xbc, 0x5a, 0xc8, 0xd9, 0x3a, 0x30, 0x3b, 0x67, 0xbd,
  0x3c, 0x0d, 0xea, 0x3c, 0xd4, 0x9d, 0xfa, 0x3c, 0x1a, 0x94, 0x3d, 0xbc,
  0x1b, 0x3a, 0x89, 0xbc, 0xff, 0x9b, 0xcc, 0xbc, 0x98, 0xb1, 0x3b, 0x3b,
  0x20, 0x3c, 0x60, 0xbd, 0xd7, 0xb6, 0x09, 0xbd, 0x81, 0x1e, 0xb5, 0xbc,
  0x0f, 0x0a, 0xb7, 0xbc, 0x5c, 0xd6, 0x63, 0xbd, 0x57, 0x99, 0x9e, 0xbc,
  0x00, 0x00, 0x00, 0x00, 0x58, 0x29, 0xfb, 0xbc, 0xcd, 0xad, 0xa3, 0x3d,
  0x7d, 0xfb, 0x11, 0xbd, 0x73, 0x71, 0xa5, 0xbc, 0x6a, 0xa5, 0xf2, 0xbb,
  0x7e, 0xf0, 0x8d, 0xbd, 0x9c, 0xa3, 0x6f, 0x3c, 0x00, 0x00, 0x00, 0x00,
  0x6a, 0x84, 0x92, 0xbb, 0x42, 0xc1, 0xff, 0xff, 0x04, 0x00, 0x00, 0x00,
  0x80, 0x00, 0x00, 0x00, 0x8c, 0xd0, 0xf1, 0xbc, 0x91, 0xec, 0x75, 0x3d,
  0xc5, 0x98, 0xa4, 0xbd, 0xa7, 0xad, 0xa9, 0x3d, 0x32, 0xb9, 0xdb, 0x3d,
  0x5e, 0xc5, 0x0e, 0x3e, 0xc3, 0x16, 0xa3, 0x3d, 0x64, 0xeb, 0xf7, 0x3d,
  0xf7, 0x38, 0xd0, 0xbd, 0x95, 0xd9, 0xbc, 0x3d, 0x4b, 0x81, 0x14, 0xbd,
  0xb9, 0x07, 0x96, 0xbc, 0x2d, 0x84, 0x78, 0xbd, 0xbe, 0xb8, 0x30, 0xbd,
  0x8c, 0xea, 0x11, 0xbd, 0x38, 0x1f, 0x3d, 0xbd, 0xc3, 0x96, 0x3c, 0x3e,
  0x6f, 0x40, 0x28, 0x3e, 0x82, 0x2b, 0xdc, 0xbd, 0x0b, 0xfd, 0xd1, 0x3d,
  0x70, 0x03, 0x81, 0xbc, 0x38, 0x5e, 0xce, 0x3d, 0xa3, 0x63, 0xb0, 0xbd,
  0x7d, 0x3b, 0x7b, 0x3b, 0x8a, 0x9f, 0xee, 0x3d, 0xe1, 0xe9, 0x71, 0x3c,
  0x05, 0x23, 0x84, 0x3c, 0x90, 0x11, 0xa8, 0xbd, 0x89, 0xc5, 0xa2, 0xbd,
  0xd4, 0xd3, 0xef, 0x3d, 0x71, 0x3d, 0xbe, 0x3c, 0x31, 0xe0, 0x07, 0x3d,
  0xce, 0xc1, 0xff, 0xff, 0x04, 0x00, 0x00, 0x00, 0x0c, 0x00, 0x00, 0x00,
  0x93, 0x55, 0x9a, 0x3e, 0x12, 0x75, 0x88, 0x3e, 0x78, 0x8f, 0x84, 0x3e,
  0xe6, 0xc1, 0xff, 0xff, 0x04, 0x00, 0x00, 0x00, 0x00, 0x1e, 0x00, 0x00,
  0x44, 0xa9, 0x12, 0xbe, 0xfa, 0x7b, 0x7c, 0xbe, 0xa2, 0x84, 0x4e, 0x3e,
  0x6f, 0xc0, 0x33, 0x3e, 0x34, 0x4c, 0x31, 0xbd, 0x10, 0x9d, 0x6a, 0x3d,
  0x91, 0x14, 0xeb, 0x3a, 0x94, 0xef, 0x4d, 0xbe, 0xb6, 0xe1, 0x27, 0xbe,
  0x65, 0x15, 0x31, 0xbe, 0x13, 0x9a, 0xd3, 0x3c, 0xf2, 0x5b, 0x26, 0xbb,
  0xe0, 0xe4, 0xaf, 0xbd, 0xd7, 0x90, 0x19, 0xbe, 0x40, 0xfe, 0x5b, 0x3e,
  0x7d, 0x63, 0x1b, 0x3e, 0xe9, 0xd5, 0x9e, 0xbc, 0x6f, 0xac, 0x1f, 0x3e,
  0xcb, 0xee, 0x55, 0xbe, 0x13, 0xfe, 0x86, 0xbe, 0x13, 0xc9, 0x1c, 0x3d,
  0xe8, 0x1e, 0x27, 0x3e, 0x86, 0x64, 0x9d, 0xbd, 0xe8, 0xe5, 0x2d, 0x3e,
  0xf1, 0xe1, 0x6a, 0xbe, 0x38, 0x9b, 0x41, 0xbe, 0xe7, 0x71, 0x44, 0x3e,
  0x98, 0xf9, 0x80, 0x3e, 0x9d, 0x99, 0xc0, 0x3d, 0xd5, 0xd4, 0x43, 0x3d,
  0x7e, 0xbd, 0x87, 0x3c, 0x70, 0xfe, 0x2e, 0x3e, 0x05, 0x91, 0x0c, 0xbe,
  0x30, 0xdc, 0x21, 0xbe, 0x5a, 0x73, 0x90, 0x3c, 0x56, 0xae, 0x06, 0xbe,
  0xb6, 0xb0, 0x1a, 0x3e, 0x3c, 0x6d, 0xd0, 0xbd, 0x9c, 0xe1, 0xf5, 0x3d,
  0x3d, 0x3d, 0x66, 0x3d, 0x0c, 0x33, 0xef, 0x3d, 0xe0, 0xc7, 0xef, 0xbd,
  0x7e, 0x5a, 0x64, 0xbe, 0x3b, 0xf0, 0xf7, 0xbd, 0x7e, 0xb7, 0x30, 0x3e,
  0xf9, 0xf7, 0x6a, 0x3e, 0x4e, 0x0e, 0x5f, 0xbe, 0xc9, 0xdd, 0x74, 0xbe,
  0x21, 0xcb, 0x08, 0xbe, 0x39, 0x9e, 0x64, 0x3d, 0x78, 0x99, 0xc3, 0x3d,
  0x18, 0x48, 0xbb, 0x3d, 0x0a, 0xa9, 0x4a, 0x3e, 0x36, 0x4f, 0x80, 0xb9,
  0x38, 0xf2, 0xb2, 0x3d, 0xe0, 0xdc, 0x10, 0xbe, 0xa8, 0xe4, 0x79, 0xbe,
  0x1d, 0x59, 0x7d, 0x3e, 0xe3, 0x3e, 0x1c, 0x3e, 0xf2, 0x68, 0x81, 0xbe,
  0x8d, 0xdd, 0x36, 0xbe, 0x73, 0x78, 0x38, 0x3e, 0x47, 0x8f, 0xf9, 0xbd,
  0x05, 0xd7, 0xb6, 0x3d, 0x21, 0x28, 0x56, 0x3e, 0x3d, 0x7c, 0x96, 0x3d,
  0x0d, 0x79, 0xee, 0x3c, 0x8c, 0x94, 0x1b, 0xbe, 0x56, 0x56, 0xab, 0x3c,
  0x4e, 0xb7, 0xd7, 0xbd, 0xd4, 0x02, 0xe4, 0x3d, 0x9c, 0xdb, 0x3d, 0x3d,
  0x5d, 0x1b, 0x3c, 0xbe, 0x7a, 0x77, 0xde, 0x3d, 0x29, 0x49, 0x21, 0xbe,
  0xa9, 0x01, 0xe2, 0x3d, 0x5a, 0xb1, 0xfa, 0xbd, 0x1a, 0x41, 0x59, 0x3d,
  0xdc, 0xe7, 0x11, 0x3e, 0xa4, 0x52, 0x05, 0xbd, 0x1a, 0xb9, 0x53, 0x3d,
  0x02, 0x6f, 0x27, 0x3e, 0x00, 0x25, 0x9f, 0xbd, 0x7a, 0xa6, 0x75, 0xbe,
  0xa2, 0x47, 0x2e, 0xbe, 0xa8, 0x62, 0x29, 0xbe, 0x38, 0x07, 0x0e, 0xbc,
  0xb5, 0xaa, 0x5d, 0x3e, 0x4d, 0xf5, 0xc8, 0x3c, 0x54, 0x61, 0xea, 0x3d,
  0xf7, 0xae, 0xbf, 0xbc, 0x5c, 0xee, 0x4b, 0x3d, 0xda, 0xac, 0x4d, 0xbd,
  0x93, 0x56, 0x09, 0x3e, 0xd5, 0x37, 0xf9, 0x3d, 0x13, 0xa8, 0x51, 0x3e,
  0xc5, 0x61, 0xdc, 0xbd, 0x4e, 0xa0, 0x80, 0x3c, 0xf5, 0xeb, 0x9c, 0x3d,
  0x45, 0xb1, 0x7d, 0x3e, 0x41, 0x52, 0x2c, 0xbe, 0x47, 0x3f, 0xa3, 0x3d,
  0xe8, 0x36, 0x43, 0x3e, 0x18, 0xef, 0xe6, 0x3d, 0xf2, 0xb5, 0xae, 0x3c,
  0x79, 0x80, 0xad, 0x3d, 0x39, 0xb5, 0x91, 0xbc, 0xf8, 0x4b, 0x7d, 0x3d,
  0x24, 0x37, 0xef, 0xbd, 0x86, 0x42, 0xc3, 0x3d, 0x86, 0x07, 0xcf, 0xbc,
  0x58, 0x91, 0x75, 0xbd, 0xcd, 0x0e, 0x32, 0xbe, 0x68, 0x54, 0x38, 0x3c,
  0xdf, 0xa5, 0x85, 0x3c, 0x71, 0xe9, 0x63, 0xbd, 0xeb, 0x12, 0x3e, 0xbe,
  0x8a, 0x32, 0x64, 0x3e, 0x39, 0x98, 0x9c, 0xbe, 0xdd, 0x5a, 0x96, 0xbe,
  0x2c, 0xf4, 0xd7, 0x3d, 0xaf, 0x0d, 0xaf, 0xbd, 0x61, 0x25, 0x1a, 0xbb,
  0xb2, 0xd7, 0x7e, 0xbe, 0x36, 0x65, 0xc7, 0x3d, 0x33, 0xf8, 0x0e, 0xbe,
  0xcb, 0xfc, 0x75, 0xbe, 0xb8, 0x45, 0xd9, 0x3d, 0x15, 0x10, 0x4d, 0xba,
  0x27, 0x72, 0x56, 0xbe, 0xce, 0xed, 0x72, 0xbe, 0x60, 0x50, 0x43, 0x3e,
  0xcd, 0x30, 0x41, 0xbe, 0x2b, 0x92, 0x5a, 0x3e, 0x8a, 0x5d, 0x18, 0x3e,
  0x05, 0x14, 0x2a, 0xbe, 0x1d, 0x27, 0xc2, 0x3d, 0xc2, 0x87, 0xd0, 0xbc,
  0xcd, 0xa4, 0x80, 0xbe, 0xcb, 0xc2, 0xcf, 0xbc, 0xf3, 0x35, 0xe8, 0xbd,
  0x62, 0x69, 0x1e, 0xbd, 0x0e, 0x0a, 0x1e, 0xbd, 0x1e, 0x65, 0x6d, 0x3e,
  0x39, 0x5c, 0x04, 0xbe, 0x25, 0x08, 0x1b, 0x3e, 0xca, 0xe0, 0x16, 0x3e,
  0x35, 0xe2, 0x1a, 0x3d, 0x38, 0x8e, 0x88, 0xbe, 0x42, 0xdd, 0x38, 0xbe,
  0xed, 0xc9, 0x06, 0x3d, 0xa9, 0x31, 0xca, 0xbd, 0xf3, 0xdb, 0x29, 0xbe,
  0x3a, 0x3f, 0x46, 0xbe, 0x6f, 0x40, 0x12, 0x3e, 0xd9, 0xd0, 0x88, 0xbe,
  0xe4, 0x59, 0x2f, 0xbe, 0xa0, 0xa6, 0x96, 0xbd, 0x16, 0x46, 0xf3, 0x3d,
  0xb9, 0x65, 0x3e, 0xbe, 0xf4, 0xbd, 0x51, 0x3e, 0x12, 0x93, 0x06, 0x3e,
  0xcd, 0x9b, 0xe6, 0x3d, 0x94, 0xb4, 0x07, 0x3e, 0x73, 0x4a, 0x8f, 0xbd,
  0xe6, 0xad, 0x1c, 0xbe, 0x49, 0x7e, 0x62, 0x3e, 0x44, 0x3d, 0xc7, 0x3d,
  0xf6, 0x7f, 0x85, 0xbd, 0x29, 0x2c, 0x41, 0xbe, 0x5a, 0x56, 0x46, 0x3e,
  0x8a, 0x14, 0xbf, 0xbd, 0xf4, 0x89, 0x11, 0xbd, 0x9f, 0x77, 0x32, 0x3e,
  0xee, 0xd6, 0xc5, 0x3d, 0x88, 0x19, 0x40, 0xbe, 0x87, 0x8e, 0x03, 0x3d,
  0x19, 0xe2, 0xa9, 0xbe, 0x26, 0xa0, 0x00, 0x3b, 0xce, 0xbb, 0x4f, 0xbe,
  0x69, 0x4e, 0x57, 0xbe, 0x2f, 0x41, 0x2c, 0xbe, 0x61, 0x21, 0x26, 0xbd,
  0x80, 0x13, 0x27, 0xbe, 0x6b, 0x02, 0x40, 0xbe, 0xa6, 0x02, 0x20, 0xbb,
  0x8c, 0x59, 0x7c, 0x3d, 0x49, 0x0c, 0x6f, 0xbe, 0x82, 0xb4, 0x3c, 0x3e,
  0x0f, 0x2e, 0x3f, 0xbd, 0xf0, 0x53, 0x41, 0x3e, 0x92, 0x1d, 0x6f, 0x3e,
  0x85, 0xcf, 0x61, 0x3e, 0xa5, 0xe5, 0x85, 0xbe, 0x3e, 0x5a, 0x0e, 0xbb,
  0xa5, 0x5b, 0xbf, 0xbd, 0xa4, 0x40, 0xf7, 0xbd, 0x8b, 0xbc, 0x32, 0x3e,
  0x95, 0xf8, 0x3e, 0x3e, 0xff, 0x2a, 0x30, 0x3d, 0x71, 0xf4, 0x69, 0x3e,
  0x20, 0x51, 0x0a, 0x3d, 0x4f, 0x57, 0xcc, 0xbd, 0xf2, 0x8b, 0xe6, 0xbd,
  0x48, 0xcb, 0x09, 0x3e, 0xab, 0x2b, 0x4c, 0x3e, 0x2b, 0xe5, 0x72, 0xbd,
  0xd9, 0x21, 0xbe, 0x3d, 0x21, 0x6a, 0xf8, 0xbb, 0xf8, 0xfb, 0x95, 0xbe,
  0xa5, 0x8f, 0xcf, 0x3d, 0xab, 0x84, 0x60, 0x3e, 0x58, 0x89, 0x57, 0xbe,
  0xbb, 0x7a, 0xd5, 0x3d, 0x90, 0xdb, 0x84, 0xbd, 0x7a, 0x0b, 0x1e, 0xbe,
  0x1c, 0x5c, 0x07, 0x3e, 0xf9, 0x7f, 0x8c, 0x3d, 0x3f, 0x0c, 0x2d, 0x3e,
  0xe6, 0x69, 0x54, 0xbe, 0xcc, 0x5f, 0xe9, 0xbd, 0xbf, 0xd4, 0x51, 0x3e,
  0x58, 0x49, 0x2a, 0x3e, 0x93, 0xce, 0x54, 0xbd, 0x99, 0xf9, 0x15, 0xbe,
  0x88, 0xcd, 0x6f, 0xbc, 0x55, 0x43, 0x3f, 0x3d, 0xa4, 0x29, 0x36, 0x3e,
  0x71, 0x78, 0xd0, 0xbb, 0xf7, 0x8e, 0xf8, 0xbd, 0x20, 0x31, 0xc5, 0x3d,
  0x37, 0x31, 0x95, 0x3d, 0x4c, 0xd8, 0x44, 0x3e, 0xff, 0x80, 0x64, 0xbd,
  0x83, 0x29, 0x48, 0xbe, 0xc3, 0x7b, 0xde, 0xbd, 0xcf, 0xd8, 0x02, 0xbd,
  0x31, 0x2c, 0xf8, 0x3d, 0x03, 0xf6, 0x91, 0xbe, 0x14, 0xe9, 0xa2, 0xbe,
  0x77, 0x25, 0xd0, 0x3d, 0x2d, 0xe4, 0xc0, 0x3c, 0x14, 0x7b, 0x34, 0xbe,
  0x91, 0xd1, 0x03, 0xbd, 0x87, 0xab, 0x0b, 0x3e, 0xc2, 0xf0, 0x88, 0x3d,
  0x15, 0xcc, 0xb4, 0xbd, 0xd9, 0xfc, 0x75, 0xbe, 0xfd, 0xbc, 0xd6, 0x3d,
  0x2f, 0x3c, 0x4f, 0xbd, 0x1b, 0x2f, 0xf9, 0xbc, 0x73, 0xf8, 0x13, 0x3e,
  0xa0, 0x93, 0x95, 0xbd, 0x5e, 0x98, 0x25, 0x3e, 0xac, 0xcc, 0x5a, 0x3c,
  0xe5, 0x8f, 0x8d, 0xbe, 0x12, 0x6c, 0x09, 0x3e, 0x2c, 0x69, 0x67, 0xbe,
  0x84, 0x1a, 0x37, 0x3e, 0x3d, 0xde, 0x7e, 0xbe, 0x4f, 0xf5, 0x1f, 0xbe,
  0x6f, 0x66, 0x4c, 0xbe, 0x5b, 0x21, 0x4c, 0xbe, 0xaf, 0x36, 0x3f, 0xbe,
  0x52, 0x9c, 0x48, 0x3e, 0xfc, 0x10, 0xa3, 0x3c, 0x8b, 0x8c, 0x41, 0x3c,
  0x79, 0xcd, 0x86, 0xbc, 0x26, 0xe1, 0xd7, 0xbc, 0xc3, 0xae, 0x2a, 0x3d,
  0x2e, 0x40, 0x20, 0xbe, 0xb1, 0xa9, 0x2b, 0xbe, 0xa1, 0x6f, 0x6d, 0xbe,
  0x61, 0x57, 0xc4, 0x3d, 0x7a, 0x69, 0x19, 0x3e, 0xef, 0x07, 0x77, 0xbe,
  0xa3, 0xdf, 0x7b, 0xbd, 0x48, 0xb6, 0x1d, 0xbd, 0x4f, 0x7a, 0x34, 0xbe,
  0xa5, 0x37, 0x8b, 0xbe, 0x8f, 0x34, 0xad, 0xbd, 0xb4, 0xac, 0x8c, 0xbe,
  0x5b, 0x3c, 0x42, 0xbe, 0x73, 0x0f, 0x1e, 0xbe, 0x28, 0x21, 0x84, 0xbe,
  0xc8, 0xa5, 0xe5, 0x3d, 0xfd, 0x73, 0x7d, 0x3d, 0x29, 0xf7, 0x61, 0x3b,
  0xca, 0xa8, 0xf8, 0xbd, 0x2e, 0x5c, 0xa1, 0xbd, 0xee, 0xc0, 0x7c, 0xbe,
  0x4e, 0x87, 0xad, 0x3d, 0xa7, 0xb0, 0xa0, 0xbd, 0x8f, 0xe8, 0x0e, 0xbd,
  0xf3, 0x42, 0x67, 0x3e, 0x9e, 0xfc, 0x07, 0xbd, 0x12, 0x43, 0x28, 0xbe,
  0xc4, 0xe2, 0x25, 0x3e, 0x29, 0x6f, 0xf0, 0x3d, 0x2c, 0x60, 0x6f, 0x3e,
  0xf6, 0x38, 0x2f, 0x3d, 0x70, 0xe7, 0xd4, 0x3d, 0x9e, 0xc0, 0x1a, 0x3e,
  0xdd, 0xce, 0x0b, 0x3e, 0xaf, 0x0b, 0x31, 0x3d, 0xab, 0x19, 0xb5, 0xbd,
  0x2d, 0xe3, 0xcc, 0xbd, 0x74, 0xb5, 0xc0, 0xbc, 0xe6, 0x1c, 0x7a, 0xbe,
  0x24, 0x4f, 0x42, 0xbe, 0x22, 0xfb, 0x28, 0xbd, 0xe0, 0x42, 0x85, 0x3c,
  0xc9, 0xdf, 0x0b, 0x3e, 0x81, 0x73, 0xd7, 0xbd, 0xcb, 0x48, 0x02, 0xbe,
  0x30, 0x57, 0x32, 0x3e, 0xe3, 0x4f, 0x97, 0xbd, 0x93, 0x7e, 0x4e, 0x3e,
  0x86, 0xe8, 0x51, 0x3e, 0x4f, 0xa3, 0x1d, 0x3e, 0x76, 0xf4, 0xec, 0xbd,
  0x7c, 0x74, 0x2a, 0x3d, 0x2f, 0x8d, 0x81, 0xbc, 0x31, 0xd6, 0x15, 0xbe,
  0x08, 0x43, 0xd9, 0xbc, 0xe5, 0x76, 0xc8, 0x3d, 0x8a, 0x37, 0x17, 0x3e,
  0x99, 0xa0, 0x71, 0xbe, 0x21, 0xa0, 0x6e, 0x3d, 0x7a, 0x4d, 0x7b, 0xbe,
  0xe3, 0xf2, 0x10, 0xbe, 0x94, 0x5a, 0xc7, 0x3c, 0xc4, 0xee, 0xe7, 0xbd,
  0x6c, 0xcf, 0xa7, 0xbd, 0xea, 0x49, 0x8c, 0xbe, 0xef, 0x41, 0xcd, 0x3d,
  0x43, 0x92, 0xf5, 0x3c, 0x33, 0x84, 0x2a, 0xbd, 0x03, 0x96, 0x80, 0x3d,
  0xbe, 0x96, 0x78, 0x3d, 0x14, 0xa2, 0xf4, 0xbd, 0x77, 0xee, 0x48, 0xbe,
  0xc6, 0xdd, 0xe8, 0x3d, 0xd9, 0x6f, 0x37, 0x3e, 0x4c, 0x21, 0x4c, 0x3e,
  0x06, 0xb8, 0xe9, 0xbd, 0x66, 0x36, 0x96, 0xbc, 0x89, 0xda, 0x4e, 0xbd,
  0x09, 0x0f, 0xf8, 0x3d, 0xd4, 0x85, 0x57, 0xbc, 0x4b, 0x81, 0x53, 0xbe,
  0x11, 0xec, 0x87, 0xbc, 0x5b, 0x0b, 0x6c, 0xbe, 0x01, 0xad, 0x26, 0xbe,
  0x1c, 0x7b, 0x2a, 0xbe, 0x1d, 0x69, 0xd8, 0xb5, 0x6f, 0xe4, 0x0f, 0xbd,
  0x04, 0xd0, 0xfc, 0x3d, 0xa5, 0x5e, 0xb0, 0x3c, 0x38, 0x9f, 0xe5, 0xbd,
  0x58, 0xeb, 0x9b, 0x3d, 0xa0, 0x7b, 0x7d, 0xbe, 0x92, 0x0d, 0x3c, 0x3d,
  0x24, 0x08, 0xb4, 0x3d, 0x83, 0x62, 0x5b, 0x3d, 0x36, 0x72, 0xc5, 0xbd,
  0x5f, 0x4f, 0x71, 0x3d, 0x62, 0x2e, 0x30, 0x3e, 0xa9, 0xd3, 0x09, 0xbe,
  0xbf, 0xea, 0xae, 0xbd, 0x2f, 0x67, 0x93, 0x3c, 0x72, 0x8f, 0x1a, 0x3e,
  0xd3, 0x51, 0xc8, 0xbc, 0xcc, 0x74, 0x82, 0x3d, 0xc8, 0x74, 0x11, 0x3e,
  0x04, 0xda, 0x6c, 0xbc, 0x2a, 0x6e, 0xa4, 0xbd, 0x13, 0x1d, 0x5d, 0xbd,
  0xd6, 0xd4, 0xb1, 0x3b, 0x92, 0xf5, 0x12, 0xbe, 0x33, 0x52, 0xd7, 0xba,
  0xe8, 0x04, 0x10, 0x3e, 0xd5, 0x1a, 0xad, 0xbd, 0xdf, 0x4c, 0xaa, 0x3d,
  0xf5, 0xb3, 0x6e, 0xbe, 0x5a, 0x5b, 0xc2, 0x3d, 0xb4, 0xc1, 0x82, 0xbd,
  0xfb, 0xb6, 0xd6, 0x3a, 0xb5, 0xa3, 0x62, 0x3e, 0x81, 0x80, 0x2e, 0x3e,
  0xc8, 0x5c, 0xa5, 0x3c, 0xf8, 0x30, 0xb6, 0xbc, 0x44, 0xe3, 0x15, 0xba,
  0x26, 0x97, 0x73, 0xbc, 0x90, 0x57, 0x0f, 0xbd, 0xce, 0x39, 0x91, 0x3a,
  0x8b, 0x60, 0xa8, 0x3d, 0x00, 0xae, 0xf1, 0x3c, 0x09, 0x6c, 0x8f, 0x3b,
  0x2c, 0x19, 0xb8, 0xbd, 0x5c, 0x44, 0x5c, 0x3e, 0x00, 0x56, 0x7b, 0xbe,
  0x39, 0x42, 0x7f, 0xbc, 0xe6, 0xc9, 0x95, 0xbc, 0xff, 0x76, 0x81, 0x3d,
  0x1a, 0x9e, 0x31, 0xbe, 0xfe, 0x9c, 0xbf, 0xbd, 0xe3, 0x08, 0x9d, 0xbd,
  0x09, 0x26, 0x6f, 0xbe, 0x0f, 0x70, 0x67, 0xbe, 0x0e, 0x59, 0x1f, 0xbd,
  0xd0, 0xa1, 0x86, 0x3c, 0x44, 0x79, 0x4f, 0xbe, 0xa7, 0x00, 0x40, 0x3e,
  0x60, 0x53, 0x89, 0x3d, 0xcc, 0x62, 0x98, 0xbd, 0x39, 0x4f, 0xf6, 0x3d,
  0x46, 0x91, 0x84, 0xbd, 0x57, 0xe0, 0x39, 0x3e, 0xd2, 0x4b, 0x0b, 0xbd,
  0x8f, 0xbe, 0xd7, 0xbd, 0xe0, 0xae, 0x41, 0xbe, 0xb1, 0xd6, 0xf8, 0xbd,
  0xac, 0x4b, 0x19, 0x3e, 0xc6, 0x6b, 0xe6, 0x3b, 0x7c, 0xa6, 0xa2, 0xbb,
  0x08, 0x2c, 0x38, 0x3e, 0xbc, 0xa3, 0x22, 0xbe, 0x44, 0xa5, 0xd3, 0xbd,
  0xfb, 0xce, 0x22, 0x3e, 0x77, 0x54, 0x10, 0xbe, 0x27, 0x80, 0x92, 0xbd,
  0x69, 0xe6, 0x09, 0x3e, 0x71, 0xd7, 0x24, 0x3e, 0x1d, 0x04, 0x76, 0xbe,
  0x3c, 0x13, 0x41, 0x3e, 0x89, 0x24, 0x1e, 0xbe, 0xac, 0xc4, 0x19, 0xbe,
  0xbf, 0xaa, 0x53, 0x3e, 0x8c, 0x4f, 0x6b, 0x3e, 0x2d, 0x02, 0x29, 0x3d,
  0x51, 0x1e, 0x3c, 0x3d, 0x46, 0x9b, 0xd9, 0x3c, 0x4d, 0x40, 0x53, 0xbe,
  0x6a, 0x55, 0x1d, 0x3e, 0xc5, 0x0d, 0xa9, 0xbc, 0x28, 0x45, 0x63, 0xbd,
  0xa3, 0x9e, 0x42, 0xbc, 0xd4, 0xf1, 0xc0, 0xbe, 0x5d, 0x8a, 0x80, 0xbe,
  0xb6, 0x55, 0x6e, 0x3d, 0xe5, 0x30, 0xa0, 0x3d, 0x5f, 0x3e, 0x3c, 0xbd,
  0xb0, 0x34, 0x22, 0xbd, 0xc8, 0x28, 0x1b, 0xbd, 0x69, 0x55, 0xbd, 0x3d,
  0x31, 0x8d, 0xc3, 0x3c, 0x1b, 0xe1, 0xfe, 0x3d, 0x4b, 0x06, 0xd1, 0xbc,
  0x1c, 0x32, 0x9b, 0xbb, 0x29, 0x58, 0x60, 0x3d, 0xa9, 0xfa, 0x13, 0xbd,
  0x9c, 0x59, 0x71, 0xbe, 0x57, 0x06, 0x3a, 0xbe, 0x6f, 0xb9, 0x88, 0xbe,
  0x70, 0xd3, 0xe6, 0xba, 0xe9, 0x20, 0x28, 0x3e, 0xe7, 0xa2, 0x96, 0xbd,
  0x8b, 0xb1, 0xef, 0x3d, 0x5f, 0x41, 0x11, 0x3e, 0x7e, 0x4c, 0xd2, 0x3d,
  0x88, 0x7e, 0x93, 0xbe, 0xbc, 0x11, 0x0f, 0x3d, 0xbe, 0x47, 0x99, 0x3d,
  0x12, 0x69, 0xaf, 0x3d, 0x43, 0x68, 0x38, 0xbd, 0x24, 0xf5, 0x80, 0xbd,
  0x92, 0x25, 0x37, 0xbc, 0x73, 0xd1, 0xcc, 0x3d, 0x35, 0xbb, 0x0d, 0x3e,
  0xa8, 0x60, 0x6e, 0x3d, 0x1a, 0x0b, 0xf1, 0xbd, 0x80, 0x11, 0x9a, 0xbc,
  0x3c, 0xc1, 0x82, 0xbd, 0x18, 0xa4, 0xb3, 0xbd, 0xb0, 0xfc, 0xcd, 0xbd,
  0x40, 0xe6, 0x18, 0xbd, 0xcc, 0x99, 0x93, 0xbd, 0x08, 0xbd, 0x0b, 0x3d,
  0x14, 0x7c, 0x14, 0x3e, 0xf2, 0x5f, 0x6f, 0xbe, 0xb3, 0x3c, 0x31, 0xbe,
  0xb0, 0x2b, 0x02, 0x3e, 0x0e, 0x46, 0xd7, 0xbd, 0xa8, 0xb5, 0xad, 0xbc,
  0x64, 0x25, 0x2f, 0xbd, 0x50, 0x05, 0xd3, 0xbd, 0x14, 0xf6, 0x11, 0x3e,
  0xe0, 0x71, 0xde, 0xbd, 0xe4, 0x4a, 0x60, 0x3e, 0xca, 0xfb, 0x60, 0xbe,
  0xac, 0x96, 0xf9, 0x3d, 0x6b, 0x73, 0x4c, 0xbe, 0xb0, 0x31, 0x42, 0x3d,
  0xc4, 0x2e, 0xeb, 0xbd, 0xcd, 0xda, 0x6e, 0xbe, 0x5c, 0x45, 0x09, 0xbe,
  0xe0, 0xd8, 0xe2, 0xbc, 0xaa, 0x0a, 0xa3, 0xbd, 0x28, 0xc8, 0x8a, 0x3d,
  0xbd, 0xe0, 0xbf, 0x3d, 0x0e, 0x65, 0xd0, 0x3d, 0x02, 0xa8, 0x8e, 0xbe,
  0xff, 0x68, 0xd5, 0x3c, 0x42, 0x3a, 0x98, 0x3d, 0x2f, 0xc7, 0xa5, 0x3d,
  0x63, 0xe5, 0xd0, 0xbd, 0x0b, 0x1d, 0xd6, 0xbd, 0xcf, 0x67, 0x8e, 0x3d,
  0xd2, 0x89, 0x9a, 0xbd, 0x9c, 0x20, 0xb6, 0xbd, 0x47, 0x0f, 0x6b, 0xbe,
  0xf4, 0x25, 0x15, 0x3e, 0x39, 0xa7, 0x0f, 0xbd, 0x2f, 0xb2, 0x0e, 0xbe,
  0x44, 0x82, 0xdd, 0x3d, 0x51, 0x7a, 0xfd, 0xbc, 0x60, 0x08, 0x26, 0x3d,
  0x0e, 0xd0, 0x2b, 0xbd, 0xfc, 0x81, 0x74, 0xbe, 0x54, 0xde, 0x1a, 0x3d,
  0xe5, 0x07, 0xc5, 0xbd, 0xbd, 0xe9, 0x33, 0x3b, 0x5b, 0x26, 0x98, 0xbe,
  0x9d, 0x0c, 0xf0, 0x3d, 0x7e, 0x4b, 0x58, 0x3d, 0x70, 0xf0, 0x24, 0x3e,
  0x7b, 0x53, 0x47, 0xbe, 0x06, 0x64, 0x88, 0x3e, 0xec, 0xf0, 0xb8, 0x3d,
  0x3c, 0xdf, 0x1f, 0x3e, 0x39, 0x6e, 0x35, 0x3e, 0x66, 0xf4, 0xda, 0x3d,
  0x9c, 0xc1, 0x8e, 0xbd, 0x23, 0x24, 0xfa, 0x3d, 0x46, 0xeb, 0x00, 0x3e,
  0xc3, 0x78, 0x79, 0xbe, 0x4f, 0xe5, 0x0e, 0xbd, 0x3c, 0xb1, 0x69, 0x3d,
  0xb7, 0x01, 0x57, 0x3e, 0x0a, 0x8e, 0x9a, 0xbe, 0xd0, 0x00, 0xa7, 0x3d,
  0x4c, 0x84, 0xdf, 0xbd, 0x3a, 0x32, 0x25, 0x3e, 0x5e, 0x64, 0xe7, 0x3b,
  0x7e, 0xbf, 0xad, 0xbd, 0x55, 0xbc, 0xd6, 0x3d, 0x5b, 0xb6, 0xec, 0xbc,
  0x7b, 0x25, 0x19, 0x3e, 0x69, 0xe3, 0x07, 0xbe, 0x5e, 0xc4, 0x41, 0x3d,
  0x90, 0xcb, 0xa9, 0x3d, 0xe5, 0x63, 0x80, 0xbc, 0xda, 0x98, 0x38, 0xbe,
  0x22, 0xdb, 0x8e, 0xbe, 0x20, 0x0e, 0x31, 0x3e, 0x30, 0xee, 0x36, 0x3e,
  0x8e, 0x9b, 0x64, 0xbd, 0xd3, 0x01, 0x64, 0xbd, 0x3b, 0x97, 0x5b, 0xbe,
  0x6a, 0x5d, 0xd3, 0xbb, 0xb7, 0xd2, 0xde, 0xbd, 0xd6, 0xd4, 0x21, 0xbe,
  0xda, 0xfb, 0xc5, 0x3d, 0x52, 0x5c, 0x86, 0xbe, 0xc3, 0x90, 0xb2, 0x3c,
  0xe5, 0x4f, 0x0e, 0x3d, 0x6a, 0x16, 0x1b, 0x3e, 0x64, 0x7a, 0xa0, 0xbd,
  0x43, 0x6b, 0x08, 0x3e, 0xed, 0xb9, 0x14, 0xbe, 0xbf, 0x89, 0x63, 0x3d,
  0x21, 0x31, 0xc0, 0xbd, 0xc0, 0xb3, 0x0b, 0x3e, 0x6c, 0x03, 0xf9, 0x3d,
  0xfb, 0x07, 0xd4, 0x3d, 0x93, 0x13, 0x11, 0xbc, 0xb6, 0x4d, 0xdc, 0xbd,
  0x7a, 0x9a, 0xb5, 0x3c, 0xa6, 0x6d, 0x4a, 0xbe, 0x70, 0x13, 0x9c, 0xbd,
  0x88, 0x75, 0xec, 0x3d, 0xb2, 0x79, 0xb6, 0x3d, 0xdb, 0xa5, 0x8d, 0xbd,
  0xd9, 0xc5, 0xb9, 0x3d, 0x10, 0x5f, 0x88, 0x3d, 0xf1, 0x1d, 0xc4, 0x3d,
  0x2f, 0xfa, 0x61, 0x3e, 0xf1, 0x7e, 0x9b, 0xbe, 0x3b, 0x5d, 0x29, 0xbe,
  0x8e, 0x53, 0x53, 0xbe, 0xc1, 0xd6, 0xcd, 0x3d, 0x3f, 0x75, 0x30, 0x3e,
  0x10, 0x04, 0x0f, 0xbe, 0x9d, 0xb6, 0xca, 0xbd, 0x2f, 0xd6, 0x31, 0x3d,
  0x5d, 0x05, 0x05, 0x3e, 0xda, 0xf4, 0xb1, 0x3c, 0x98, 0x39, 0x7b, 0xbe,
  0xfc, 0x4f, 0x66, 0x3d, 0x3c, 0x69, 0x4f, 0x3d, 0xf6, 0x9e, 0x90, 0xbd,
  0x3a, 0xb1, 0x6f, 0x3d, 0xf6, 0x25, 0x1a, 0xbe, 0x7a, 0x25, 0x91, 0x3d,
  0x4b, 0x5a, 0x0d, 0x3e, 0x88, 0xf0, 0x95, 0xbb, 0x7b, 0xb2, 0x54, 0x3e,
  0xfc, 0xb5, 0xdb, 0x3d, 0x40, 0x1a, 0x2f, 0xbe, 0xb4, 0xe0, 0xc4, 0x3d,
  0x8f, 0x2c, 0x10, 0xbe, 0x40, 0x8c, 0x2d, 0xbe, 0xe2, 0xf6, 0x29, 0x3e,
  0xb1, 0x5a, 0x5f, 0xbe, 0x95, 0x42, 0x2e, 0x3e, 0x3c, 0xa6, 0x5d, 0xbc,
  0x28, 0xa9, 0x0e, 0x39, 0x05, 0x86, 0x66, 0x3d, 0x5a, 0x2f, 0x1b, 0xbe,
  0x81, 0x0b, 0xb4, 0xbc, 0xa2, 0x2f, 0x5d, 0xbe, 0x72, 0x90, 0x3f, 0x3e,
  0x29, 0xba, 0x64, 0xbd, 0x2f, 0xaf, 0xaa, 0xbd, 0xef, 0xab, 0x6b, 0xbe,
  0x00, 0xf5, 0x8c, 0xbd, 0xac, 0x7f, 0x82, 0xbe, 0x5e, 0x17, 0x08, 0x3e,
  0x25, 0xb2, 0x7d, 0xbe, 0x30, 0xee, 0x5f, 0xbd, 0xc4, 0x3e, 0xe0, 0xbb,
  0x2a, 0xa5, 0xe0, 0xbd, 0x01, 0x8f, 0x8a, 0xba, 0xf3, 0xc0, 0x54, 0xbe,
  0xb6, 0xe4, 0x81, 0xbd, 0xdf, 0x8f, 0xa8, 0x3d, 0x24, 0x4b, 0x19, 0x3e,
  0x9c, 0xb6, 0xe9, 0x3d, 0x87, 0x05, 0x81, 0x3c, 0x2f, 0xa9, 0x5f, 0xbe,
  0xb3, 0x1f, 0x90, 0x3d, 0x5f, 0x22, 0x55, 0x3d, 0x0e, 0x15, 0x24, 0x3e,
  0xe4, 0x51, 0x5b, 0x3e, 0x44, 0x0c, 0x54, 0xbe, 0x7e, 0xa0, 0x06, 0xbe,
  0xe2, 0x59, 0x50, 0x3e, 0x28, 0xc0, 0x21, 0xbe, 0x41, 0x35, 0x55, 0xbe,
  0xee, 0xb2, 0x02, 0xbc, 0x93, 0x54, 0x71, 0xbe, 0x9e, 0xf4, 0x47, 0x3e,
  0xb2, 0x31, 0xad, 0x3d, 0x9f, 0x5a, 0xcb, 0xbd, 0x38, 0xae, 0x8a, 0xbd,
  0x6a, 0x4c, 0x32, 0xbe, 0x80, 0x6b, 0xcd, 0x3c, 0xda, 0x4d, 0x32, 0xbe,
  0xe6, 0xe9, 0xfa, 0x3d, 0x0d, 0xa0, 0xb9, 0xbd, 0x64, 0xf4, 0x59, 0x3e,
  0x67, 0x5e, 0x88, 0xbd, 0x3c, 0xc9, 0x93, 0x3d, 0x61, 0xde, 0x44, 0x3e,
  0x6a, 0x48, 0x37, 0x3e, 0x70, 0x23, 0x19, 0x3e, 0xf0, 0xa9, 0x19, 0x3d,
  0x0f, 0xe1, 0x36, 0x3d, 0x47, 0xc7, 0xe0, 0x3d, 0xd5, 0x3a, 0x4d, 0x3e,
  0x78, 0x06, 0xed, 0xbd, 0x7f, 0x25, 0x50, 0xbe, 0x49, 0x0d, 0x2d, 0xbe,
  0xd5, 0xc8, 0x14, 0x3e, 0xe0, 0x03, 0x22, 0x3e, 0xc1, 0xb5, 0x40, 0xbe,
  0x0c, 0x0a, 0xaa, 0xbb, 0xff, 0x8c, 0xa3, 0xbe, 0xa9, 0xec, 0xda, 0x3c,
  0xe5, 0xad, 0x5b, 0x3e, 0x9d, 0xa2, 0x83, 0x3e, 0x62, 0x67, 0xf5, 0x3d,
  0x83, 0xa3, 0x6f, 0x3e, 0x3c, 0x08, 0xe4, 0x3c, 0x2a, 0x9b, 0xe3, 0x3d,
  0x5f, 0x71, 0x68, 0x3e, 0xb1, 0x95, 0x4c, 0x3b, 0x46, 0x0a, 0x6e, 0x3d,
  0xc6, 0x0c, 0x50, 0xbb, 0x60, 0x5b, 0x1b, 0x3e, 0xab, 0xe6, 0x09, 0x3e,
  0x1a, 0xae, 0xf1, 0xbd, 0x02, 0x59, 0xad, 0xbd, 0x30, 0xa3, 0x42, 0xbe,
  0xd0, 0x54, 0x58, 0xbe, 0xc5, 0xfb, 0x25, 0xbe, 0xb8, 0x11, 0x91, 0xbe,
  0x26, 0x85, 0x76, 0xbe, 0xc6, 0x1a, 0x83, 0x3d, 0x90, 0x04, 0x4f, 0xbe,
  0xf2, 0x97, 0xad, 0xbd, 0xdd, 0xdd, 0x2f, 0xbd, 0xb3, 0x91, 0xf1, 0x3d,
  0xd2, 0x36, 0xdc, 0xbd, 0x36, 0xec, 0x59, 0xbe, 0xd0, 0x37, 0x6b, 0x3e,
  0x17, 0xac, 0xa7, 0x3e, 0x7c, 0x3e, 0x88, 0xbe, 0xa3, 0xfa, 0xd0, 0xbd,
  0x76, 0x98, 0x47, 0xbe, 0xda, 0xb1, 0x37, 0xbe, 0x1e, 0xbd, 0x09, 0xbd,
  0xe9, 0x3e, 0x90, 0xbe, 0x16, 0xba, 0x64, 0x3e, 0x30, 0x7f, 0x37, 0xbd,
  0x98, 0x6b, 0x1f, 0xbe, 0x4f, 0xa5, 0x30, 0xbe, 0x70, 0x33, 0x60, 0xbd,
  0x6f, 0xd8, 0xb7, 0xbd, 0x47, 0x05, 0xfa, 0xbd, 0x0c, 0xa5, 0xb5, 0x3d,
  0x24, 0x4d, 0x5f, 0x3e, 0xf8, 0x91, 0x54, 0x3e, 0x2b, 0xa9, 0x43, 0xbe,
  0xf8, 0x05, 0xb0, 0x3c, 0x0b, 0x5a, 0x5a, 0x3e, 0xc0, 0xc9, 0x40, 0x3e,
  0x02, 0x7b, 0xdd, 0xbc, 0xd4, 0xc6, 0x81, 0xbe, 0xfc, 0xe9, 0x71, 0x3d,
  0xae, 0x38, 0x11, 0xbe, 0x2c, 0x40, 0x0b, 0x3d, 0x88, 0x0a, 0xd5, 0x3d,
  0x1c, 0x52, 0x30, 0xbe, 0x43, 0x67, 0x2d, 0x3e, 0x14, 0xa7, 0x39, 0xbd,
  0x61, 0xe7, 0xd1, 0xbd, 0xd7, 0x5a, 0x4a, 0xbe, 0x08, 0x4f, 0x48, 0xbc,
  0xc3, 0xe5, 0x07, 0xbe, 0x9f, 0x06, 0xf7, 0x3d, 0x9f, 0x29, 0x75, 0xbd,
  0xf2, 0x53, 0x2d, 0xbb, 0xe1, 0x34, 0xe1, 0x3c, 0x5f, 0xae, 0x1b, 0x3e,
  0x4d, 0x34, 0x47, 0xbe, 0xe4, 0xde, 0x3e, 0xbd, 0x00, 0xcb, 0x66, 0xbe,
  0xc9, 0xab, 0xf7, 0x3d, 0xca, 0x69, 0xa2, 0x3d, 0xc2, 0x84, 0x4d, 0xbe,
  0xe1, 0xb1, 0x85, 0x3c, 0xed, 0xcf, 0x9a, 0x3d, 0x66, 0xcf, 0x6c, 0x3e,
  0x68, 0x3d, 0xb9, 0xbd, 0x71, 0x12, 0x52, 0x3e, 0xf4, 0x70, 0x16, 0xbd,
  0x57, 0x37, 0x1c, 0x3e, 0x8c, 0xe0, 0x09, 0x3d, 0xa2, 0x66, 0xe1, 0x3d,
  0xbd, 0x5a, 0x71, 0x3e, 0x3f, 0x4c, 0x7a, 0xbe, 0xee, 0xa9, 0x8b, 0xbd,
  0xff, 0x7a, 0x5a, 0x3e, 0x9a, 0xcf, 0xb9, 0xbc, 0xbc, 0x2c, 0x90, 0xbd,
  0x95, 0x95, 0xcc, 0x3d, 0xad, 0xe6, 0x67, 0xbe, 0x61, 0x48, 0x49, 0xbe,
  0x26, 0x50, 0x9a, 0xbd, 0xa9, 0x21, 0x8a, 0xbe, 0xab, 0x79, 0x4c, 0x3d,
  0x17, 0xe7, 0x2c, 0xbe, 0x2e, 0x00, 0x36, 0xbe, 0xfa, 0xd0, 0x37, 0x3e,
  0x44, 0x9d, 0x0e, 0xbe, 0xcf, 0xb0, 0xe3, 0x3d, 0xfe, 0xb6, 0x8a, 0xbe,
  0x28, 0xcc, 0x45, 0x3e, 0x85, 0x2c, 0x46, 0xbc, 0xb7, 0x7f, 0x0c, 0x3e,
  0xe4, 0xde, 0x1b, 0x3c, 0xf4, 0xeb, 0x3c, 0xbe, 0xf6, 0xc9, 0x9b, 0xbd,
  0x7b, 0x0f, 0x69, 0x3e, 0x07, 0x0f, 0x46, 0x3e, 0x39, 0xd4, 0xa3, 0xbd,
  0xae, 0xa9, 0x38, 0x3e, 0xf5, 0x4b, 0xe0, 0x3d, 0x05, 0x78, 0xf8, 0xbd,
  0x49, 0x95, 0x23, 0xbd, 0x6c, 0xb1, 0x94, 0xbe, 0x0f, 0x4c, 0x06, 0xbe,
  0x25, 0x6b, 0x2a, 0xbe, 0xb7, 0x0a, 0x30, 0x3d, 0x92, 0xea, 0xfe, 0xbd,
  0x8a, 0x68, 0x2f, 0x3e, 0xb0, 0x44, 0x9f, 0xbd, 0xf3, 0xbd, 0x77, 0xbd,
  0x76, 0xa4, 0xc2, 0xbc, 0x58, 0x29, 0x15, 0xbe, 0x93, 0x37, 0xeb, 0x3c,
  0x00, 0x92, 0x0f, 0x3e, 0x7f, 0xdd, 0x12, 0xbe, 0xae, 0x28, 0xaa, 0xbd,
  0x71, 0xe7, 0xe9, 0xbd, 0x75, 0x75, 0x0d, 0x3e, 0xb4, 0xcf, 0x89, 0xbe,
  0x8b, 0xde, 0xfd, 0xbd, 0xba, 0xe2, 0x4e, 0xbe, 0xc0, 0x75, 0x88, 0xbd,
  0xe1, 0xdf, 0x3d, 0xbe, 0x37, 0xc8, 0x4b, 0x3e, 0x9f, 0xd4, 0x4b, 0xbe,
  0x29, 0x67, 0x94, 0x3e, 0xb2, 0xdc, 0x32, 0xbe, 0x11, 0x67, 0xf5, 0xbd,
  0xa7, 0x7b, 0xf7, 0xbd, 0x98, 0x54, 0x29, 0xbe, 0x5b, 0x4b, 0x21, 0x3e,
  0x7a, 0xca, 0xcc, 0xbd, 0x46, 0x56, 0x11, 0x3e, 0x38, 0x1f, 0x00, 0xbe,
  0x51, 0x9d, 0xf6, 0xba, 0x70, 0x1c, 0x7b, 0x3e, 0x51, 0x5b, 0x18, 0x3e,
  0xd1, 0xae, 0x67, 0x3e, 0x30, 0x6c, 0x9f, 0x3d, 0x18, 0x48, 0x8a, 0xbe,
  0x0b, 0xa3, 0x25, 0xbe, 0x14, 0x36, 0x81, 0x3e, 0x69, 0x60, 0x18, 0xbe,
  0x48, 0x0f, 0xab, 0x3d, 0x3b, 0x3f, 0xf8, 0xbb, 0xe8, 0xb8, 0x6f, 0xbd,
  0x95, 0x53, 0x52, 0x3e, 0x30, 0xf1, 0x8c, 0x3d, 0xbf, 0x48, 0x4b, 0xbe,
  0x4e, 0x9b, 0x08, 0x3e, 0xfc, 0x2d, 0x12, 0x3e, 0x29, 0xb1, 0x70, 0xbe,
  0xf8, 0x08, 0x04, 0x3e, 0x5b, 0x44, 0x82, 0xbe, 0xed, 0x85, 0x73, 0xbe,
  0x78, 0xfd, 0x20, 0xbe, 0xe7, 0x27, 0xcb, 0x3d, 0x29, 0x75, 0x99, 0x3d,
  0x77, 0x24, 0x19, 0xbe, 0xd5, 0x5c, 0xc6, 0xbd, 0xdc, 0x4d, 0xc6, 0xbd,
  0x30, 0x2c, 0xca, 0x3d, 0xcc, 0xe5, 0x89, 0x3d, 0xfb, 0x6d, 0x6a, 0x3d,
  0x64, 0x75, 0x99, 0xbc, 0x79, 0x0f, 0xdf, 0x3d, 0x15, 0x83, 0xb6, 0xbd,
  0x23, 0x1e, 0xff, 0xbd, 0xa6, 0x28, 0x3b, 0xbd, 0x39, 0x50, 0x07, 0xbe,
  0x00, 0x14, 0x97, 0x3d, 0x89, 0x80, 0x41, 0xbd, 0xfd, 0x56, 0xd4, 0xbd,
  0x17, 0x44, 0xc3, 0xbd, 0x64, 0x33, 0xd6, 0xbb, 0xc6, 0x4a, 0xf6, 0x3c,
  0x59, 0xa9, 0x26, 0xbc, 0x82, 0x0f, 0x11, 0xbe, 0x62, 0xc3, 0x00, 0x3c,
  0x9b, 0x43, 0x3c, 0xbd, 0x9e, 0xfe, 0x1d, 0x3e, 0x2b, 0x87, 0x3e, 0xbe,
  0x33, 0x1a, 0x09, 0x3e, 0x5f, 0x19, 0x33, 0xbe, 0xcd, 0x96, 0xdb, 0xbb,
  0xce, 0x90, 0x5d, 0xbe, 0xcf, 0xdf, 0xed, 0xbd, 0x61, 0xfc, 0x38, 0x3b,
  0x5e, 0xa7, 0xef, 0x3b, 0x20, 0x4a, 0xd5, 0xbd, 0x65, 0xbd, 0x36, 0x3e,
  0xde, 0xbd, 0x96, 0x3b, 0x6c, 0x88, 0x1e, 0x3d, 0x79, 0x0a, 0x32, 0x3d,
  0xe3, 0x59, 0xe8, 0x3d, 0x75, 0xab, 0x47, 0x3c, 0x5a, 0x3b, 0x67, 0xbd,
  0x7f, 0x79, 0x68, 0x3e, 0xd9, 0x86, 0x69, 0xbd, 0xee, 0xd9, 0x2a, 0x3e,
  0xcb, 0x40, 0xef, 0x3d, 0x26, 0x1f, 0x47, 0x3d, 0xa7, 0xcb, 0x73, 0xbe,
  0xc5, 0xb3, 0x17, 0x3e, 0xbb, 0x8c, 0x8c, 0x3d, 0x25, 0x98, 0x36, 0x3e,
  0xdc, 0x91, 0xaf, 0x3d, 0xd4, 0xc3, 0x0b, 0xbe, 0x76, 0x8f, 0x60, 0xbe,
  0x69, 0x64, 0x78, 0xbe, 0x87, 0x22, 0x7e, 0xbd, 0x1a, 0x41, 0x13, 0xbe,
  0xbb, 0x37, 0x80, 0xbe, 0xdb, 0x67, 0x07, 0x3e, 0x4c, 0x83, 0x5b, 0xbe,
  0xe1, 0x1a, 0x69, 0x3e, 0xf3, 0xd2, 0xab, 0xbd, 0xfe, 0x96, 0x12, 0xbe,
  0x80, 0x7b, 0xe4, 0x3d, 0xb1, 0x77, 0x3b, 0x3e, 0x82, 0x9f, 0xf5, 0xbd,
  0x64, 0x1b, 0x67, 0xbe, 0xb5, 0xa2, 0x21, 0xbe, 0xd4, 0x4f, 0x5a, 0xbe,
  0x45, 0x54, 0x9e, 0x3d, 0xa4, 0x42, 0xe7, 0x3d, 0x3e, 0x90, 0x42, 0xbd,
  0xd3, 0x40, 0x47, 0x3e, 0x41, 0x64, 0x4c, 0xbe, 0x3b, 0x21, 0x9f, 0xbe,
  0x83, 0x34, 0xd4, 0xbd, 0xd3, 0xa1, 0x7a, 0x3a, 0xb4, 0x59, 0x88, 0x3c,
  0xa0, 0xcf, 0x0d, 0x3e, 0x71, 0x36, 0xc1, 0x3c, 0xf4, 0x16, 0x01, 0x3e,
  0x08, 0x45, 0x49, 0x3e, 0x75, 0x21, 0x17, 0xbe, 0x88, 0x56, 0x1a, 0x3e,
  0xfa, 0xc8, 0x4d, 0xbe, 0x20, 0x01, 0x1b, 0xbe, 0xff, 0xaf, 0x37, 0x3d,
  0x61, 0x7c, 0xdf, 0x3d, 0xe6, 0xa7, 0xa6, 0x3d, 0xe3, 0x5c, 0xe8, 0x3d,
  0x16, 0x87, 0x10, 0xbe, 0xbc, 0xd3, 0x1b, 0x3e, 0x95, 0x91, 0xda, 0x3d,
  0x19, 0xb6, 0x8f, 0xbe, 0x67, 0x04, 0x94, 0xbd, 0xe8, 0x34, 0xb9, 0xbd,
  0xca, 0x53, 0x87, 0x3d, 0xc9, 0x56, 0x59, 0x3d, 0x6c, 0x25, 0x53, 0xbc,
  0xbb, 0x13, 0x1d, 0xbe, 0x3b, 0x9f, 0xcd, 0x3d, 0x32, 0x11, 0x2c, 0x3e,
  0x7b, 0x9c, 0x9f, 0xbd, 0xc0, 0x53, 0xc2, 0xbd, 0xd8, 0xb3, 0x87, 0x3e,
  0x70, 0xaa, 0x27, 0xbd, 0x4e, 0xee, 0x8f, 0xbe, 0x96, 0xa0, 0xb1, 0x3d,
  0xd3, 0x10, 0x2d, 0xbe, 0xd2, 0xb2, 0x1f, 0x3e, 0x08, 0x86, 0x22, 0xbe,
  0xb1, 0x76, 0x28, 0x3e, 0xba, 0xd3, 0x67, 0xbe, 0xe8, 0xd6, 0xbb, 0x3d,
  0x45, 0xdb, 0x2d, 0xbe, 0xd4, 0xfb, 0xa6, 0xbd, 0xf2, 0x94, 0x09, 0xbe,
  0x64, 0x59, 0x3c, 0xbe, 0x3e, 0x33, 0xb7, 0x3d, 0x5e, 0xc5, 0xbc, 0x3d,
  0x83, 0xf0, 0x23, 0xb9, 0x06, 0x3b, 0x13, 0xbc, 0x01, 0x57, 0x2a, 0x3e,
  0xa6, 0xcb, 0xeb, 0x3d, 0x10, 0xdc, 0xec, 0x3d, 0x9c, 0xb7, 0x9c, 0xbd,
  0xde, 0x63, 0x08, 0xbd, 0x4d, 0x83, 0x08, 0xbd, 0x14, 0x75, 0x7e, 0xbe,
  0x99, 0xe7, 0x80, 0x3e, 0x73, 0x4a, 0x9f, 0x3d, 0x49, 0xb6, 0x48, 0xbe,
  0x78, 0xd3, 0x81, 0x3e, 0x57, 0x08, 0x27, 0x3e, 0x00, 0xba, 0xde, 0xbd,
  0x5b, 0xbf, 0x18, 0x3d, 0x23, 0xd2, 0x0f, 0x3e, 0xc0, 0x07, 0x1a, 0x3e,
  0x3b, 0xf6, 0x84, 0x3d, 0xce, 0x18, 0x3b, 0xbe, 0xf7, 0xb7, 0xee, 0xbd,
  0x37, 0x8b, 0x3c, 0x3e, 0x07, 0xce, 0x7e, 0x3d, 0x3d, 0x10, 0xe9, 0xbb,
  0x64, 0x8f, 0x48, 0xbe, 0xd1, 0x62, 0x3b, 0x3e, 0x33, 0xfb, 0xc8, 0x3d,
  0x80, 0x3d, 0xd1, 0xbd, 0xae, 0xf1, 0x2e, 0xbe, 0x7a, 0x67, 0x4a, 0x3c,
  0xf4, 0xf4, 0x59, 0x3d, 0x15, 0xb7, 0xdc, 0xbd, 0x35, 0x94, 0x63, 0xbe,
  0xb6, 0x19, 0x6c, 0xbe, 0xc9, 0xc2, 0x63, 0xbc, 0x59, 0xf4, 0x2a, 0x3e,
  0xba, 0xbc, 0x01, 0xbe, 0xfe, 0x1b, 0x3c, 0x3e, 0x37, 0x00, 0xc4, 0xbd,
  0x04, 0x70, 0xcf, 0x3c, 0xd5, 0xbf, 0xea, 0xbd, 0x89, 0x49, 0x17, 0xbd,
  0x7d, 0x3b, 0xa7, 0xbd, 0xfb, 0xa3, 0x62, 0xbe, 0x4f, 0xdb, 0x6e, 0xbb,
  0x95, 0x25, 0x1a, 0x3d, 0xcb, 0xfa, 0x48, 0x3e, 0x3f, 0xec, 0x94, 0xbd,
  0x42, 0xc4, 0xf0, 0xbc, 0xb3, 0xae, 0xad, 0xbd, 0x5c, 0xef, 0x39, 0xbe,
  0x9c, 0xee, 0xfe, 0x3d, 0xd7, 0xe4, 0x85, 0xbd, 0x9d, 0x84, 0x62, 0xbe,
  0x2c, 0xf1, 0x46, 0x3e, 0x7b, 0xdb, 0x18, 0x3e, 0xc5, 0x92, 0xad, 0x3d,
  0xae, 0x3d, 0xaf, 0x3d, 0x92, 0xe8, 0x09, 0x3e, 0x14, 0xbe, 0x40, 0x3e,
  0x0b, 0xa3, 0x6c, 0x3e, 0x6e, 0xd2, 0x2c, 0x3e, 0x34, 0x54, 0x5d, 0x3e,
  0xa4, 0xe8, 0x80, 0x3d, 0xaf, 0x61, 0x07, 0x3d, 0x53, 0x4b, 0x27, 0x3e,
  0x37, 0x3c, 0x0d, 0xbd, 0xec, 0x6d, 0x6a, 0xbe, 0xd0, 0xd9, 0xa9, 0xbb,
  0xf6, 0xf3, 0x35, 0xbe, 0x74, 0xd9, 0x97, 0xbe, 0xac, 0xb5, 0x92, 0x3d,
  0xc3, 0xcd, 0xc6, 0xbc, 0x3a, 0xbf, 0xb1, 0xbe, 0x57, 0x98, 0x8c, 0xbe,
  0x36, 0xf3, 0xd5, 0xbd, 0x4f, 0x0d, 0x8e, 0xbe, 0x99, 0xac, 0x38, 0x3e,
  0x5b, 0xa0, 0x91, 0xbe, 0x54, 0x24, 0x5c, 0xbe, 0xe6, 0x14, 0x02, 0x3d,
  0x77, 0x3a, 0x59, 0x3e, 0x59, 0xba, 0x8f, 0xbd, 0x93, 0x4e, 0x39, 0x3d,
  0x9b, 0xff, 0x5a, 0x3c, 0x31, 0x06, 0x27, 0xbd, 0xcb, 0xd6, 0xac, 0x3d,
  0x58, 0x69, 0x25, 0x3d, 0x2a, 0x86, 0x3f, 0x3e, 0x27, 0xc6, 0x61, 0xbe,
  0xad, 0x5a, 0x33, 0x3e, 0xcd, 0x02, 0x7c, 0xbd, 0x53, 0x11, 0xb3, 0xbd,
  0xf6, 0xaf, 0x1a, 0x3e, 0xa8, 0x61, 0xfd, 0xbd, 0xd5, 0xc7, 0x96, 0x3d,
  0xb0, 0xbb, 0x64, 0xbd, 0x59, 0x50, 0x29, 0xbd, 0xf4, 0xf9, 0xa4, 0x3d,
  0x75, 0x3a, 0x28, 0xbd, 0xce, 0x17, 0x21, 0x3e, 0xc3, 0xf6, 0x22, 0x3e,
  0x7e, 0x5a, 0x7b, 0x3d, 0x0a, 0x72, 0xa7, 0x3d, 0x9b, 0x38, 0xd8, 0xbd,
  0x48, 0xc9, 0x18, 0x3e, 0x9d, 0x03, 0x16, 0x3e, 0xa1, 0x53, 0x26, 0xbd,
  0xc4, 0xb7, 0x14, 0x3e, 0xd1, 0xb2, 0x48, 0x3e, 0x16, 0xbf, 0x7e, 0xbb,
  0xf1, 0x20, 0x55, 0xbe, 0x95, 0x3d, 0x4e, 0x3e, 0x09, 0xa4, 0xd7, 0x3d,
  0x57, 0xa5, 0x72, 0xbe, 0x44, 0x5e, 0x03, 0xbe, 0xa7, 0xba, 0x80, 0xbd,
  0x8b, 0x92, 0x9f, 0xbd, 0xa5, 0xb1, 0xdb, 0xbd, 0xbe, 0x27, 0x81, 0x3e,
  0x01, 0x1b, 0xa8, 0xbd, 0xa2, 0xde, 0xbe, 0x3a, 0xb1, 0xc5, 0x5a, 0x3d,
  0x9f, 0x6d, 0x45, 0x3e, 0x09, 0xbe, 0xfb, 0xbc, 0x2a, 0x32, 0xbf, 0x3d,
  0xd7, 0x90, 0xa7, 0x3e, 0xe7, 0x59, 0x91, 0xbd, 0xf0, 0xca, 0x0d, 0xbe,
  0xec, 0x2a, 0xff, 0xbd, 0xd8, 0x57, 0x94, 0xbe, 0x7f, 0xea, 0x8b, 0xbd,
  0xdd, 0xa4, 0x34, 0x3c, 0x8d, 0x57, 0x35, 0xbe, 0xbb, 0x2e, 0xf5, 0xbd,
  0xc3, 0xd0, 0x89, 0x3a, 0xa0, 0x3b, 0x30, 0xbe, 0x4c, 0x9b, 0x5a, 0xbd,
  0x76, 0x25, 0xe1, 0xbc, 0x6e, 0x20, 0x0a, 0xbe, 0x58, 0x5c, 0x97, 0xbd,
  0x01, 0x92, 0x58, 0x3d, 0x79, 0x4c, 0x20, 0xba, 0x72, 0xea, 0x89, 0x3c,
  0x6f, 0xc9, 0x58, 0xbe, 0x28, 0x46, 0x5f, 0xbd, 0x50, 0xa7, 0x86, 0x3e,
  0xba, 0xa2, 0xe8, 0x3d, 0xe3, 0x22, 0x8d, 0x38, 0x15, 0x14, 0x83, 0xbe,
  0xbd, 0xdd, 0x1f, 0xbd, 0x60, 0x51, 0x4c, 0xbe, 0xea, 0xa7, 0x40, 0x3e,
  0x74, 0x11, 0xf8, 0xbd, 0x6e, 0xcc, 0x3c, 0x3e, 0xbf, 0xa5, 0x1d, 0xbd,
  0x36, 0x3d, 0x27, 0xbd, 0xe7, 0x74, 0x6a, 0x3e, 0xf1, 0x5e, 0x4d, 0x3e,
  0xf4, 0xe1, 0xbb, 0xbc, 0xeb, 0x16, 0x8c, 0x3d, 0x68, 0x5d, 0x62, 0x3e,
  0xca, 0xb1, 0xe2, 0x3c, 0x8d, 0x21, 0xef, 0xbd, 0xb9, 0x73, 0x5d, 0x3e,
  0x27, 0xd4, 0x5d, 0x3b, 0x72, 0xe6, 0x28, 0x3e, 0xc5, 0x50, 0xaa, 0xbd,
  0xd0, 0x68, 0x6d, 0x3e, 0x23, 0x2d, 0x58, 0xbe, 0xb8, 0x89, 0x37, 0x3e,
  0x39, 0xa1, 0xb6, 0xbc, 0x75, 0x6e, 0x01, 0x3e, 0x04, 0x9a, 0x39, 0x3e,
  0xc4, 0xb1, 0x14, 0xbe, 0xed, 0x3a, 0xf5, 0x3d, 0x61, 0x41, 0xdb, 0xbd,
  0x12, 0x2f, 0x53, 0xbd, 0x7d, 0xa3, 0xa8, 0x3c, 0x70, 0x69, 0x07, 0xbc,
  0xd9, 0x01, 0x27, 0x3e, 0xd4, 0xa6, 0xcf, 0x3c, 0xbd, 0xf6, 0x19, 0xbe,
  0x73, 0x73, 0xc9, 0xbc, 0x43, 0x0a, 0x0b, 0x3e, 0xf4, 0x48, 0x6d, 0xbe,
  0x94, 0x2b, 0xd6, 0xb9, 0x35, 0x3f, 0xbd, 0x3d, 0x67, 0x03, 0x08, 0xbd,
  0xfa, 0x0b, 0x0d, 0xbe, 0xf4, 0xc3, 0x64, 0x3d, 0xb6, 0xf7, 0x1b, 0x3e,
  0x0c, 0x29, 0x85, 0xbd, 0x32, 0xdb, 0x5c, 0xbe, 0xfc, 0xaa, 0x37, 0xbe,
  0x12, 0x77, 0xd8, 0xbc, 0x14, 0x90, 0x95, 0xbd, 0xf9, 0x20, 0x4e, 0x3e,
  0x45, 0x22, 0x3c, 0xbe, 0x9e, 0x7f, 0x04, 0x3e, 0x70, 0x0e, 0x91, 0x3d,
  0x1f, 0x6c, 0x95, 0x3d, 0xe4, 0x2d, 0x20, 0xbe, 0xef, 0xe7, 0x1e, 0x3e,
  0xb6, 0x34, 0xe4, 0x3b, 0xf2, 0x68, 0x2c, 0x3e, 0x9e, 0xd0, 0x0f, 0x3e,
  0x78, 0xf3, 0xd6, 0xbd, 0x78, 0x59, 0x8c, 0xbc, 0x27, 0x0a, 0xab, 0x3d,
  0xcf, 0x8c, 0x10, 0x3e, 0x9a, 0xb3, 0x1f, 0xbe, 0xf1, 0x4a, 0x0c, 0xbe,
  0x4f, 0x15, 0xde, 0xbd, 0xd9, 0x5d, 0x2c, 0xbd, 0xb2, 0xa9, 0xbc, 0x3d,
  0x52, 0xa8, 0x99, 0xbd, 0xf5, 0x50, 0xee, 0xbd, 0x65, 0x85, 0x06, 0xbe,
  0x36, 0x9f, 0xb0, 0xbd, 0x65, 0x09, 0x38, 0x3e, 0x9b, 0xca, 0xef, 0x3d,
  0x3c, 0xe9, 0x26, 0xbe, 0xa5, 0x7f, 0x28, 0xbe, 0x35, 0x75, 0x65, 0x3e,
  0x0b, 0xeb, 0xe9, 0x3b, 0x7e, 0xfc, 0xc8, 0x3d, 0x17, 0x3f, 0x5b, 0x3d,
  0xcb, 0x7b, 0x61, 0xbe, 0x02, 0xc0, 0xfe, 0xbb, 0x1f, 0xad, 0x2a, 0xbd,
  0xb3, 0x2f, 0x62, 0xbe, 0x72, 0x6d, 0xcc, 0xbd, 0x94, 0x7c, 0x70, 0xbe,
  0x48, 0xeb, 0x9d, 0x3d, 0xea, 0xcf, 0x06, 0xbe, 0xb9, 0x5f, 0x4c, 0xbe,
  0x81, 0xa1, 0xc0, 0x3d, 0x5c, 0xf8, 0x78, 0xbd, 0xd0, 0xb3, 0x8a, 0x3d,
  0x88, 0xa4, 0x4f, 0x3e, 0x1b, 0xd8, 0x16, 0xbe, 0xe9, 0xb8, 0xce, 0xbd,
  0x1c, 0x65, 0x4e, 0x3e, 0x24, 0x3a, 0x06, 0x3e, 0xf8, 0x9d, 0x86, 0xbd,
  0xe8, 0xe5, 0x1e, 0xbe, 0x57, 0xbd, 0x3a, 0xbe, 0xdb, 0xc9, 0x4b, 0xbe,
  0x7a, 0x7c, 0xe1, 0x3d, 0xf8, 0xd7, 0x8c, 0xbe, 0x03, 0x45, 0x12, 0x3e,
  0x9e, 0x40, 0x12, 0xbe, 0x6a, 0x1a, 0x2a, 0x3e, 0x87, 0x2d, 0x7e, 0x3d,
  0x64, 0x76, 0x03, 0x3e, 0x76, 0xea, 0x8f, 0xbd, 0x72, 0xcf, 0x0e, 0x3e,
  0x2b, 0xf9, 0x0e, 0x3e, 0x5a, 0xa2, 0x11, 0xbe, 0xb0, 0xae, 0x55, 0x3c,
  0x73, 0x81, 0xd1, 0xbd, 0x40, 0xdd, 0xd3, 0x3d, 0x87, 0x46, 0x2c, 0xbc,
  0xfe, 0x2c, 0xbd, 0x3b, 0x06, 0xb2, 0x71, 0xbd, 0x81, 0x6e, 0x16, 0xbd,
  0x11, 0xad, 0x1f, 0x3d, 0xb6, 0xab, 0xc2, 0xbd, 0xad, 0xe2, 0xf8, 0x3d,
  0xc6, 0x38, 0xfc, 0x3c, 0x1e, 0x91, 0xb0, 0xbd, 0x36, 0x45, 0xda, 0x3d,
  0x7e, 0x1c, 0xe8, 0xbd, 0x19, 0xf6, 0xa7, 0xbd, 0x89, 0x21, 0xc0, 0xbd,
  0x5d, 0x4d, 0x33, 0xbe, 0x12, 0xec, 0x57, 0x3d, 0x0b, 0xf0, 0x72, 0xbe,
  0x94, 0xed, 0x35, 0x3e, 0x4c, 0x54, 0x09, 0x3d, 0xdd, 0x76, 0x26, 0xbd,
  0xa5, 0xf7, 0xef, 0x3d, 0x05, 0x0f, 0xaa, 0xbd, 0x1e, 0xa8, 0x49, 0x3e,
  0x14, 0xcc, 0x4c, 0xbe, 0x46, 0xcb, 0x7b, 0xbe, 0xfe, 0xab, 0x82, 0x3e,
  0x65, 0x07, 0xc4, 0xbc, 0x4b, 0x47, 0x1a, 0xbe, 0xef, 0xaf, 0x5c, 0xbe,
  0xf0, 0x27, 0xf5, 0x3d, 0x3a, 0xb2, 0x42, 0xbd, 0x8d, 0x95, 0xfa, 0xbd,
  0x23, 0xdb, 0x81, 0x3e, 0x45, 0xd9, 0x12, 0x3d, 0x92, 0x42, 0xbf, 0x3d,
  0x7f, 0xfe, 0xaf, 0xbd, 0xe0, 0xbe, 0x71, 0xbd, 0xa6, 0x21, 0x54, 0x3e,
  0x7b, 0xde, 0xed, 0xbd, 0x07, 0x3b, 0x8a, 0x3d, 0x74, 0x06, 0xda, 0xbb,
  0x9d, 0xeb, 0x4f, 0xbe, 0x91, 0x8f, 0xb2, 0xbb, 0x3b, 0x24, 0x2d, 0xbe,
  0xc6, 0x65, 0xbf, 0x3d, 0x87, 0x17, 0x8d, 0x3e, 0x00, 0x6e, 0x5f, 0x3e,
  0xcf, 0x67, 0xf3, 0xbd, 0xa3, 0x0a, 0x6b, 0x3b, 0xa2, 0xe8, 0x53, 0xbd,
  0xed, 0xe6, 0xce, 0x3c, 0x50, 0x88, 0x9a, 0x3d, 0x2d, 0xb0, 0xd9, 0x3d,
  0x70, 0x21, 0x34, 0x3d, 0x64, 0x89, 0xaa, 0xbd, 0x3f, 0x8d, 0x76, 0x3e,
  0x1e, 0x4f, 0x55, 0xbe, 0xd6, 0x78, 0x6d, 0x3c, 0xf7, 0xa9, 0x51, 0xbe,
  0x2d, 0x1f, 0x09, 0xbe, 0x3d, 0x36, 0x73, 0xbe, 0x64, 0x79, 0xe4, 0xbd,
  0x9e, 0xf0, 0x48, 0x3e, 0xbe, 0x5c, 0xa5, 0xbd, 0x0a, 0x21, 0xb1, 0xbd,
  0x42, 0x07, 0x62, 0x3e, 0x22, 0xe4, 0x19, 0xbe, 0x6d, 0x84, 0x04, 0xbe,
  0x18, 0xe1, 0x36, 0x3d, 0xd3, 0x59, 0x5f, 0x3e, 0x75, 0xa7, 0x1c, 0xbe,
  0x62, 0x33, 0xbc, 0x3d, 0x26, 0xff, 0x19, 0x3e, 0x52, 0xad, 0x6c, 0x3e,
  0xec, 0x51, 0x02, 0x3e, 0xda, 0xe2, 0xc7, 0x3d, 0x61, 0xb1, 0x52, 0xbe,
  0x52, 0x13, 0x0f, 0xbe, 0x18, 0xab, 0xf3, 0x3c, 0x0b, 0xb8, 0x8b, 0xbd,
  0x2c, 0xd4, 0x6d, 0x3d, 0x6a, 0xb0, 0x52, 0x3e, 0x46, 0xf9, 0x6d, 0xbe,
  0xb5, 0x48, 0x0f, 0xbd, 0xf1, 0x43, 0x48, 0x3e, 0xff, 0xdc, 0xd8, 0xbd,
  0xa6, 0x0f, 0x4d, 0x3d, 0xf2, 0x75, 0x0f, 0x3e, 0x07, 0x4b, 0x4a, 0x3e,
  0x10, 0xb4, 0x4b, 0xbe, 0xfd, 0x4f, 0xc5, 0xbb, 0xaa, 0x12, 0x1a, 0x3e,
  0xff, 0xdd, 0x37, 0x3e, 0xb1, 0xbe, 0x9f, 0x3d, 0xd3, 0x1d, 0x37, 0xbc,
  0x2f, 0xf5, 0x0c, 0x3e, 0x15, 0xa2, 0xda, 0x3d, 0x8f, 0x26, 0xf3, 0x3d,
  0x87, 0x29, 0xac, 0xbd, 0x1c, 0x3d, 0x6c, 0xbd, 0x97, 0xa9, 0x27, 0x3e,
  0x2f, 0x1c, 0x73, 0xbe, 0x43, 0x1a, 0xb3, 0x3c, 0x4f, 0x56, 0x60, 0xbd,
  0x94, 0x81, 0xae, 0xbc, 0xb1, 0xef, 0xef, 0xbd, 0xce, 0xeb, 0x51, 0xbd,
  0x0a, 0x8f, 0xed, 0xbd, 0xc6, 0xbe, 0xb6, 0x3d, 0xbd, 0x3f, 0xc5, 0xbb,
  0xf5, 0x3b, 0x5a, 0xbe, 0x22, 0xc0, 0xfe, 0xbd, 0x01, 0xe7, 0x3a, 0xbe,
  0x31, 0x23, 0x49, 0x3e, 0xeb, 0x1b, 0x3e, 0x3e, 0x20, 0x86, 0x6c, 0xbe,
  0x25, 0xf8, 0x6c, 0xbe, 0x84, 0x26, 0x47, 0xbc, 0xe5, 0x44, 0xb7, 0x3d,
  0x91, 0x27, 0x80, 0xbe, 0x7c, 0xa0, 0x73, 0xbe, 0x06, 0x43, 0xc3, 0x3d,
  0xbf, 0x4b, 0x49, 0xbe, 0x9b, 0x2c, 0x0a, 0xbd, 0xbb, 0x57, 0x5f, 0xbe,
  0xbc, 0xc5, 0x7e, 0xbe, 0x90, 0xf2, 0xa3, 0xbc, 0xeb, 0x8d, 0xc1, 0xbd,
  0x77, 0x05, 0x2e, 0xbd, 0x36, 0x2b, 0x3f, 0x3e, 0xce, 0xf8, 0x58, 0x3e,
  0xb5, 0xc4, 0x28, 0x3e, 0x33, 0x65, 0x6a, 0x3e, 0xed, 0x6d, 0x83, 0xbd,
  0x81, 0x07, 0x26, 0x3e, 0xb1, 0x7c, 0xa3, 0x3d, 0xa9, 0x57, 0x5f, 0x3d,
  0xe7, 0x50, 0x9c, 0xbe, 0x83, 0xa3, 0x83, 0x3b, 0xdb, 0xd5, 0x70, 0xbe,
  0x06, 0x0a, 0x39, 0x3c, 0x9f, 0xb3, 0x0d, 0x3e, 0x93, 0x62, 0xcc, 0xbd,
  0xf5, 0xd0, 0x4e, 0xbe, 0x76, 0x27, 0xb8, 0xbd, 0xb5, 0xb4, 0xc2, 0x3d,
  0x14, 0x64, 0x01, 0x3d, 0xa2, 0x53, 0xff, 0x3c, 0x15, 0xc8, 0xdf, 0x3c,
  0xbc, 0x8c, 0x54, 0xbe, 0xe9, 0x84, 0x22, 0x3e, 0xc1, 0xed, 0x30, 0x3e,
  0x0d, 0x44, 0x5d, 0x3e, 0x8e, 0x98, 0x32, 0x3e, 0xb0, 0x70, 0xf9, 0xbd,
  0xb1, 0x88, 0x5b, 0x3e, 0x1f, 0xb3, 0x57, 0xbe, 0x19, 0xb2, 0xc1, 0xbd,
  0xac, 0x98, 0xd0, 0x3c, 0xe3, 0xb2, 0x3a, 0xbe, 0xea, 0x00, 0xeb, 0xbd,
  0x8c, 0xc6, 0xae, 0x3d, 0xda, 0xf5, 0x56, 0xbe, 0xe1, 0xee, 0x01, 0x3d,
  0x48, 0xcd, 0xb8, 0xbd, 0x62, 0x33, 0x40, 0xbd, 0xf4, 0xae, 0x08, 0x3e,
  0xa2, 0x75, 0x73, 0x3c, 0x8a, 0x25, 0x73, 0xbd, 0x78, 0xf6, 0x5b, 0xbe,
  0x59, 0xeb, 0x48, 0x3e, 0x4b, 0x56, 0x0a, 0x3e, 0xe5, 0xbc, 0x5d, 0x3d,
  0xb5, 0x6d, 0x5b, 0x3d, 0x15, 0x99, 0x3b, 0x3d, 0x4e, 0x74, 0x65, 0x3e,
  0x2b, 0x41, 0x01, 0xbe, 0x78, 0x40, 0x5e, 0xbe, 0xc6, 0x36, 0xd9, 0x3c,
  0xf0, 0xce, 0x73, 0x3d, 0x73, 0xee, 0xee, 0xbd, 0x17, 0x3a, 0x19, 0x3e,
  0x0c, 0x59, 0xa8, 0x3c, 0xeb, 0xb4, 0x7c, 0x3d, 0xe9, 0x40, 0xba, 0xbd,
  0x66, 0xba, 0x67, 0xbe, 0x91, 0xd4, 0x3b, 0x3e, 0x87, 0x7a, 0x64, 0xbe,
  0xd7, 0x1d, 0x8a, 0xbe, 0x15, 0x27, 0x86, 0xbd, 0x0a, 0x3c, 0xf7, 0xbd,
  0xe8, 0xcc, 0x01, 0xbd, 0xc6, 0xe2, 0x52, 0x3e, 0xd3, 0x3f, 0x3f, 0xbc,
  0x6c, 0x45, 0xd5, 0x3d, 0x91, 0xf5, 0x60, 0x3e, 0xa1, 0x2a, 0x92, 0xbd,
  0xd0, 0x1c, 0x32, 0x3d, 0xd4, 0x13, 0x21, 0xbe, 0x25, 0x28, 0x4e, 0x3d,
  0x5c, 0xee, 0x87, 0x3c, 0x61, 0xc5, 0x66, 0x3e, 0x1f, 0xec, 0x86, 0xbd,
  0xb2, 0xa1, 0x5e, 0xbe, 0xb9, 0x8b, 0x88, 0xbe, 0x9e, 0x4b, 0x2a, 0x3e,
  0x27, 0xc6, 0x25, 0x3e, 0xb8, 0x3a, 0xbe, 0xbd, 0x60, 0x6d, 0xa0, 0xbd,
  0xbe, 0x67, 0xde, 0x3d, 0x8d, 0xc0, 0x61, 0xbe, 0x58, 0x11, 0xf3, 0xbc,
  0xe2, 0x58, 0x8c, 0xbe, 0x66, 0x46, 0xdb, 0x3d, 0x59, 0x8f, 0x90, 0xbe,
  0xf8, 0x12, 0x24, 0x3e, 0x6c, 0x7d, 0x96, 0x3d, 0x49, 0x61, 0x46, 0xbe,
  0xee, 0x48, 0x0b, 0x3d, 0xe6, 0x3d, 0x92, 0xbe, 0xa9, 0x4c, 0x4d, 0xbe,
  0x61, 0x41, 0x90, 0xbc, 0x31, 0xab, 0x6c, 0x3d, 0x53, 0x36, 0x08, 0x3e,
  0x9c, 0x4c, 0x3d, 0x3e, 0xf0, 0xbd, 0x10, 0x3c, 0x8d, 0xff, 0x92, 0x3d,
  0xc3, 0xaa, 0x38, 0xbe, 0xfd, 0xa4, 0xdb, 0x3d, 0x32, 0x79, 0x40, 0x3e,
  0xfd, 0x15, 0xdd, 0x3d, 0x3e, 0x46, 0x91, 0xbe, 0xde, 0xad, 0x48, 0x3e,
  0x41, 0xc3, 0x31, 0x3e, 0x83, 0xed, 0x5e, 0xbe, 0xd9, 0xf8, 0x44, 0xbe,
  0x72, 0x59, 0xec, 0x3d, 0x03, 0x76, 0x1c, 0xbe, 0x3e, 0xcd, 0x3a, 0x3e,
  0xa7, 0x85, 0x1c, 0x3e, 0x79, 0x83, 0x60, 0xbe, 0xd0, 0xa6, 0xa6, 0xbd,
  0x49, 0xb2, 0xff, 0x3d, 0xee, 0xfc, 0xe5, 0xbd, 0x1d, 0xac, 0x21, 0xbd,
  0xe0, 0x98, 0x81, 0xbe, 0xf8, 0xb2, 0x0c, 0xbe, 0x39, 0x8e, 0x45, 0x3e,
  0x96, 0x84, 0x8a, 0x3c, 0x36, 0x15, 0x09, 0x3b, 0xc0, 0xa9, 0x59, 0xbe,
  0x7a, 0x56, 0x75, 0xbe, 0xac, 0xe2, 0x5a, 0x3d, 0x22, 0x4e, 0x43, 0x3e,
  0x33, 0xfd, 0x01, 0xbe, 0xe4, 0xdf, 0x70, 0x3e, 0x62, 0x95, 0x08, 0xbd,
  0x9c, 0xa9, 0x45, 0x3e, 0x6f, 0x75, 0x95, 0xbd, 0xcf, 0xb2, 0x64, 0x3e,
  0x6b, 0x27, 0xb7, 0x3d, 0x33, 0x39, 0x6f, 0x3e, 0x69, 0x63, 0x47, 0x3e,
  0x60, 0x1f, 0x18, 0x3e, 0x2a, 0x3d, 0xef, 0x3c, 0x56, 0x7c, 0x41, 0xbe,
  0x03, 0x54, 0x1d, 0x3e, 0x0f, 0x82, 0x79, 0x3e, 0xcf, 0x45, 0x3f, 0xbe,
  0x63, 0x89, 0xb7, 0xbc, 0xe6, 0x08, 0x35, 0xbe, 0x4d, 0x04, 0x6f, 0x3e,
  0x64, 0x5e, 0xaa, 0xbd, 0x59, 0x87, 0xc6, 0x3d, 0x51, 0xaf, 0x4b, 0x3e,
  0xb6, 0xee, 0x55, 0xbd, 0x18, 0x46, 0xd0, 0xbc, 0x15, 0x48, 0x66, 0xbe,
  0x64, 0xfb, 0xe5, 0x3d, 0x4e, 0x43, 0xf0, 0xbd, 0x57, 0x57, 0x44, 0xbd,
  0xba, 0xb4, 0x4f, 0x3c, 0xb8, 0xde, 0x84, 0xbe, 0x16, 0x42, 0x32, 0xbe,
  0x6c, 0x11, 0x66, 0x3d, 0xf2, 0x86, 0x09, 0xbd, 0xea, 0x13, 0x14, 0x3e,
  0xfb, 0xad, 0x37, 0xbe, 0x2a, 0x3d, 0x0d, 0xbe, 0xab, 0xb5, 0x96, 0x3d,
  0xbb, 0x25, 0x7a, 0xbd, 0xec, 0xdb, 0x88, 0x3c, 0xe4, 0xf9, 0x59, 0x3e,
  0x7b, 0x37, 0x55, 0x3e, 0xad, 0xee, 0x97, 0xbd, 0xfe, 0x08, 0x11, 0xbd,
  0xc6, 0x6b, 0xd4, 0xbd, 0xaa, 0x42, 0x77, 0x3e, 0xbd, 0xb8, 0x60, 0xbe,
  0x95, 0x89, 0xf0, 0xbd, 0x96, 0x62, 0x77, 0xbe, 0x73, 0x61, 0x2d, 0xbd,
  0xe2, 0x11, 0xaa, 0x3c, 0x96, 0x8b, 0x7c, 0x3c, 0xad, 0x44, 0xea, 0xbd,
  0xf5, 0x4e, 0x42, 0x3d, 0x95, 0xf9, 0xdc, 0xbd, 0x15, 0x27, 0x55, 0xbe,
  0x28, 0x4d, 0x4d, 0x3d, 0x38, 0x34, 0x49, 0x3e, 0xb2, 0x58, 0x7c, 0x3e,
  0xe9, 0x7d, 0x2a, 0xbe, 0x43, 0x54, 0xee, 0x3d, 0x5d, 0xf1, 0xec, 0x3d,
  0x45, 0x72, 0x0f, 0x3e, 0x89, 0x10, 0x71, 0xbe, 0x6d, 0xbe, 0x60, 0x3d,
  0x17, 0xa8, 0x06, 0xbe, 0x5e, 0x0f, 0x21, 0xbe, 0x3b, 0x03, 0xdf, 0xbc,
  0xeb, 0x83, 0x9d, 0xbd, 0x21, 0xfc, 0x0b, 0xbe, 0x3e, 0xd3, 0x82, 0xbb,
  0x67, 0xf0, 0x05, 0x3e, 0x5b, 0x53, 0x43, 0x3d, 0x3f, 0xee, 0x81, 0xbd,
  0x91, 0xe5, 0x89, 0xbe, 0xe7, 0x0c, 0x6f, 0xbe, 0x31, 0x3f, 0x58, 0x3e,
  0x71, 0xfc, 0xee, 0xbd, 0xa1, 0x27, 0x83, 0xbe, 0x12, 0xf3, 0x9a, 0xbc,
  0xcf, 0xce, 0x4b, 0xbd, 0xc4, 0x29, 0x0a, 0x3e, 0x34, 0x93, 0x6b, 0xbe,
  0x89, 0x30, 0x1c, 0x3e, 0xa0, 0x1e, 0x62, 0xbe, 0x35, 0xe8, 0x0f, 0x3e,
  0x00, 0x99, 0x82, 0xbe, 0x53, 0x79, 0x08, 0x3e, 0xf8, 0x3d, 0x11, 0x3e,
  0x28, 0x6a, 0x2d, 0x3e, 0xe2, 0x45, 0x55, 0x3d, 0x4b, 0xe2, 0xd7, 0xbb,
  0x02, 0xd3, 0x06, 0x3e, 0x00, 0xd5, 0x01, 0x3e, 0xd2, 0xfe, 0x0b, 0x3e,
  0xff, 0x93, 0x79, 0xbe, 0x43, 0xf7, 0x18, 0x3e, 0xf3, 0x3c, 0xa3, 0x3c,
  0x28, 0x42, 0xd0, 0x3d, 0xb1, 0x18, 0x20, 0x3e, 0x76, 0x3e, 0xa6, 0xbd,
  0x78, 0x5a, 0x80, 0x3e, 0xd2, 0x0a, 0xe4, 0xbd, 0x8e, 0x23, 0x34, 0x3e,
  0x79, 0xff, 0xad, 0x3d, 0x51, 0x06, 0x04, 0xbe, 0x98, 0x28, 0xc3, 0xbd,
  0x15, 0x86, 0x33, 0xbe, 0x9f, 0x39, 0x0a, 0xbe, 0x1c, 0xc9, 0xc9, 0x3d,
  0xb0, 0x5c, 0xe8, 0x3d, 0x32, 0x94, 0x0c, 0xbe, 0xd0, 0x60, 0x3d, 0x3e,
  0x90, 0xb3, 0x40, 0xbe, 0x93, 0x78, 0x2f, 0x3e, 0x89, 0x07, 0xe2, 0x3c,
  0x70, 0x37, 0x81, 0x3e, 0x0a, 0xe7, 0x8b, 0xbe, 0xd1, 0x9f, 0x2a, 0xbd,
  0x98, 0x2d, 0x12, 0xbe, 0x1f, 0x23, 0x09, 0xbe, 0x44, 0x8a, 0x1b, 0x3e,
  0x18, 0x86, 0xb7, 0x3d, 0x6a, 0x2c, 0x62, 0x3c, 0x11, 0xe0, 0x83, 0xbe,
  0x77, 0xb9, 0x11, 0xbe, 0x90, 0xf9, 0x4c, 0xbe, 0xa6, 0x24, 0x1c, 0x3e,
  0xcf, 0xd4, 0xbf, 0xbc, 0x80, 0x22, 0x08, 0x3e, 0xe5, 0xc1, 0xb2, 0xbc,
  0x8a, 0xbf, 0xef, 0xbd, 0x70, 0x25, 0xb7, 0x3d, 0x2c, 0x1d, 0x55, 0xbe,
  0x96, 0x4b, 0x7b, 0xbe, 0x2c, 0x88, 0x27, 0xbd, 0xf0, 0xc3, 0x09, 0xbd,
  0x5c, 0xfa, 0x68, 0xbd, 0x64, 0x1f, 0x51, 0x3e, 0x94, 0x4a, 0x3b, 0xbd,
  0xf8, 0xe5, 0xd4, 0xbc, 0x18, 0xe8, 0x63, 0xbe, 0x0f, 0x7b, 0x4c, 0xbe,
  0x84, 0x2e, 0x5d, 0x3e, 0x2c, 0x87, 0xc6, 0x3d, 0xb8, 0x67, 0x2e, 0xbd,
  0x2e, 0xc7, 0x18, 0x3e, 0x18, 0x22, 0x83, 0xbd, 0xe0, 0x34, 0xdb, 0xbc,
  0xab, 0xc7, 0x7d, 0xbe, 0x28, 0xd1, 0xea, 0x3d, 0x7a, 0x10, 0x02, 0x3e,
  0xb5, 0x0e, 0x6c, 0xbe, 0xdc, 0x46, 0xd5, 0x3d, 0x00, 0x94, 0x43, 0x3a,
  0x58, 0x06, 0xbd, 0xbc, 0xd3, 0xa8, 0x2b, 0xbe, 0xa0, 0xf5, 0x5e, 0x3e,
  0xe0, 0x2f, 0xbc, 0x3d, 0x4c, 0x41, 0x80, 0xbe, 0xdd, 0xba, 0x5d, 0xbe,
  0xb6, 0xa7, 0x59, 0x3e, 0x9a, 0x1f, 0xdc, 0xbd, 0xef, 0x1a, 0x4e, 0xbe,
  0xca, 0x45, 0x43, 0x3d, 0xd5, 0x2b, 0x82, 0xbe, 0xba, 0x6c, 0x11, 0x3d,
  0xce, 0x38, 0x39, 0x3d, 0x1d, 0xe8, 0x7a, 0xbe, 0xd1, 0x35, 0xc1, 0xbd,
  0xbf, 0x8a, 0x2b, 0xbd, 0xf2, 0xf1, 0x3f, 0x3e, 0x04, 0xa1, 0x9f, 0x3d,
  0xb6, 0x0e, 0x59, 0xbe, 0x5e, 0xbe, 0x27, 0x3e, 0x23, 0x1d, 0x91, 0x3d,
  0x42, 0x2b, 0x0c, 0x3e, 0xf2, 0x45, 0x82, 0xbd, 0xc3, 0x91, 0x0c, 0x3d,
  0xe3, 0x5f, 0xd3, 0xbd, 0xe7, 0x16, 0x67, 0x3e, 0xcb, 0x11, 0x60, 0x3e,
  0x01, 0x83, 0x23, 0x3e, 0x7e, 0x24, 0x95, 0xbd, 0xbc, 0xdb, 0xc6, 0x3c,
  0xc2, 0x88, 0x33, 0x3e, 0x22, 0x10, 0x93, 0xbe, 0x3e, 0x4d, 0x31, 0x3e,
  0x76, 0x31, 0x6d, 0x3e, 0x14, 0xb7, 0xa3, 0x3d, 0x8f, 0xc8, 0x9e, 0xbe,
  0x0e, 0xe7, 0x33, 0x3e, 0xd1, 0xbd, 0x62, 0xbe, 0x72, 0x43, 0x80, 0xbe,
  0xeb, 0x4a, 0x3d, 0xbe, 0x48, 0xc7, 0x8b, 0xbe, 0x9d, 0x95, 0x89, 0xbe,
  0x7a, 0xf8, 0x89, 0xbe, 0x78, 0xe2, 0x80, 0xbe, 0xb0, 0x97, 0xc1, 0xbd,
  0xdb, 0x91, 0x6b, 0x3c, 0x11, 0x71, 0x46, 0x3d, 0x28, 0x83, 0x84, 0xbe,
  0xa2, 0x98, 0xda, 0xbc, 0x15, 0x36, 0x3f, 0xbe, 0x77, 0x7d, 0x5f, 0x3e,
  0xaa, 0x7d, 0x4b, 0x3d, 0x58, 0x2d, 0xd2, 0xbd, 0x5c, 0x5e, 0x98, 0xbd,
  0x02, 0x79, 0x0f, 0x3d, 0x08, 0x15, 0x0c, 0xbe, 0x2c, 0x0b, 0xe8, 0xba,
  0xa6, 0xe6, 0x98, 0xbd, 0xdb, 0xef, 0x6f, 0xbe, 0x98, 0xc7, 0x3f, 0xbe,
  0xa2, 0xb5, 0x3b, 0xbe, 0x97, 0xe2, 0xbd, 0xbd, 0xe6, 0x55, 0xf6, 0x3d,
  0x60, 0x7c, 0x38, 0xbd, 0x1e, 0x24, 0xa3, 0x3e, 0x16, 0x31, 0x46, 0x3e,
  0xb6, 0xa1, 0x35, 0x3e, 0x75, 0x2a, 0x66, 0xbe, 0x01, 0x6a, 0x87, 0xbd,
  0xd7, 0x8f, 0x59, 0x3e, 0xa5, 0xb7, 0x28, 0xbd, 0x5b, 0xab, 0xd1, 0xbd,
  0x25, 0xf4, 0x0e, 0x3e, 0xc1, 0xe6, 0xe1, 0xbc, 0x4e, 0x68, 0xf2, 0xbd,
  0x91, 0x58, 0x4c, 0x3e, 0x67, 0x2c, 0xa6, 0xbe, 0xf2, 0x27, 0xe1, 0xbc,
  0x06, 0x4f, 0xb7, 0xbd, 0xf7, 0x05, 0xe3, 0xbc, 0xd9, 0xe5, 0x08, 0x3e,
  0x23, 0xb7, 0x5c, 0xbd, 0xc4, 0xe2, 0x4c, 0xbe, 0x4b, 0x4f, 0x57, 0xbe,
  0x8d, 0x1a, 0x87, 0x3c, 0xf5, 0x81, 0x07, 0xbe, 0x72, 0xee, 0xe4, 0x3d,
  0x79, 0x92, 0x00, 0xbe, 0x69, 0x3d, 0xf9, 0xbd, 0x0c, 0x29, 0x89, 0xba,
  0x5b, 0xc3, 0x06, 0x3e, 0x09, 0xf7, 0x37, 0x3d, 0x41, 0x2d, 0x05, 0x3e,
  0xd7, 0x22, 0x29, 0xbe, 0x5e, 0x67, 0x14, 0x3e, 0xe4, 0x70, 0x39, 0x3e,
  0x9c, 0xe2, 0x1a, 0xbe, 0x1a, 0x0d, 0x0d, 0x3e, 0xf8, 0x4f, 0x25, 0xbd,
  0x48, 0xd3, 0x30, 0x3e, 0xfc, 0xab, 0x42, 0x3e, 0x6a, 0x71, 0xc0, 0xbd,
  0x8c, 0xba, 0x03, 0xbe, 0xd8, 0x8c, 0x2f, 0x3d, 0x20, 0x79, 0x1d, 0x3e,
  0x3f, 0x70, 0x7c, 0xbe, 0xac, 0x5e, 0x40, 0xbe, 0x60, 0x84, 0x63, 0xbe,
  0x53, 0x3f, 0x4c, 0xbe, 0x3e, 0x1e, 0xbe, 0xbd, 0xb0, 0x10, 0x97, 0x3c,
  0xd6, 0x6a, 0xcf, 0xbd, 0xa0, 0xdc, 0x04, 0x3c, 0x4a, 0xa4, 0xa0, 0xbd,
  0xcc, 0xe2, 0x51, 0xbe, 0x70, 0xc2, 0x20, 0x3e, 0x4f, 0x11, 0x71, 0xbe,
  0x89, 0x3e, 0x7e, 0x3c, 0x22, 0xdc, 0x8e, 0xbe, 0xcd, 0xec, 0x6e, 0xbe,
  0x29, 0x65, 0x20, 0x3d, 0x90, 0xad, 0x23, 0x3d, 0x7e, 0xdc, 0x0b, 0xbe,
  0x11, 0x10, 0x8c, 0x3a, 0x6a, 0x11, 0x64, 0x3e, 0xfd, 0x31, 0x99, 0xbe,
  0x2c, 0x55, 0x3e, 0x3e, 0x91, 0x5b, 0x38, 0xbe, 0xc5, 0x82, 0xcb, 0x3b,
  0xf2, 0x33, 0x51, 0xbe, 0x61, 0x03, 0xe7, 0x3d, 0x99, 0x57, 0x05, 0xbe,
  0x84, 0x5e, 0x69, 0xbe, 0x59, 0x56, 0xa1, 0xbd, 0xc8, 0xbc, 0xbb, 0xbc,
  0x8c, 0x6f, 0x31, 0x3e, 0x7e, 0x94, 0x29, 0xbd, 0x71, 0x6b, 0x3d, 0x3c,
  0x00, 0xbc, 0x5d, 0x3e, 0x24, 0xbc, 0xd7, 0xbd, 0x16, 0x06, 0x02, 0xbe,
  0xc0, 0xe3, 0x2f, 0xbe, 0x10, 0x4a, 0x51, 0x3e, 0x00, 0x39, 0x3c, 0xbe,
  0x0b, 0x24, 0x05, 0xbe, 0xac, 0x07, 0x7d, 0xbd, 0xaf, 0x83, 0x28, 0x3e,
  0x5e, 0xbb, 0xdf, 0x3d, 0x1f, 0xf4, 0xbd, 0xbd, 0x72, 0x0c, 0x29, 0x3e,
  0x2d, 0xfa, 0xa7, 0x3d, 0xc7, 0xa5, 0x6d, 0xbe, 0xd4, 0x30, 0x20, 0xbe,
  0x6b, 0x30, 0x55, 0x3e, 0xef, 0xc9, 0x8d, 0xbe, 0xcc, 0xaf, 0x03, 0xbe,
  0x64, 0x87, 0x00, 0x3e, 0x17, 0x65, 0x5d, 0xbe, 0x62, 0x84, 0xb3, 0x3d,
  0x93, 0x25, 0xba, 0x3c, 0x4f, 0x8e, 0xc2, 0x3c, 0xfe, 0x35, 0xc5, 0x3d,
  0x06, 0x79, 0x65, 0x3d, 0xc5, 0xd3, 0x24, 0xbe, 0xb1, 0x54, 0xed, 0x3d,
  0x8f, 0xb5, 0x9d, 0xbe, 0xb7, 0x17, 0x50, 0x3e, 0x65, 0x1f, 0x83, 0xbe,
  0x59, 0x7d, 0x3e, 0x3e, 0xb1, 0x47, 0x3c, 0xbc, 0xf6, 0x86, 0x87, 0xbe,
  0x84, 0x44, 0xdf, 0x3c, 0xdb, 0x54, 0x28, 0xbe, 0xed, 0xbc, 0x53, 0x3d,
  0x2e, 0x17, 0xed, 0xbc, 0x5c, 0x9a, 0x84, 0xbe, 0xb2, 0x2a, 0x20, 0x3e,
  0x23, 0x43, 0xcd, 0x3b, 0x39, 0x16, 0x96, 0x3c, 0x36, 0xcf, 0xf9, 0x3d,
  0xab, 0xb6, 0xce, 0x3d, 0x5a, 0xde, 0x52, 0xbd, 0x65, 0x41, 0xa2, 0xbd,
  0x4b, 0x73, 0x69, 0xbd, 0xb9, 0x7a, 0x45, 0xbe, 0x22, 0x74, 0x34, 0xbc,
  0xb2, 0xcf, 0x7a, 0xbc, 0xa1, 0xb8, 0xe0, 0x3d, 0x15, 0x49, 0x55, 0xbe,
  0xe0, 0x91, 0x56, 0x3d, 0x00, 0x96, 0xc5, 0x3d, 0x10, 0xa2, 0x61, 0x3d,
  0x88, 0xde, 0xd0, 0xbd, 0x18, 0xcf, 0x46, 0x3e, 0x19, 0x9e, 0xb0, 0x3d,
  0xb8, 0x20, 0xfd, 0x3d, 0x1f, 0x0c, 0x21, 0xbe, 0x3b, 0xd9, 0x4a, 0xbe,
  0xc9, 0xc4, 0x9e, 0xbd, 0x3f, 0xa2, 0x95, 0xbd, 0x98, 0xd3, 0x55, 0x3e,
  0x6c, 0xde, 0xa4, 0xbd, 0xf2, 0x28, 0x7a, 0xbd, 0xf8, 0x47, 0xa6, 0x3d,
  0x77, 0x22, 0xc5, 0x3c, 0x84, 0xe7, 0xee, 0xbd, 0x53, 0xe9, 0xbf, 0x3d,
  0x94, 0x1b, 0x19, 0xbe, 0xcb, 0xd2, 0x54, 0xbe, 0x37, 0xc6, 0x4d, 0x3e,
  0x0e, 0x62, 0x2b, 0xbe, 0x2d, 0x01, 0x8c, 0x3e, 0x3d, 0x08, 0x37, 0xbd,
  0x68, 0xc1, 0xc1, 0x3d, 0x92, 0x38, 0x4c, 0x3e, 0xbe, 0x4e, 0x04, 0xbd,
  0xe8, 0xfc, 0x77, 0xbe, 0x88, 0x88, 0x7b, 0xbd, 0x84, 0xd8, 0xfd, 0xbd,
  0x67, 0x6c, 0x76, 0xbe, 0x50, 0xeb, 0x0d, 0xbd, 0x62, 0xe3, 0xf4, 0xbd,
  0x48, 0xd4, 0x5e, 0x3d, 0x50, 0xbb, 0x71, 0x3e, 0x0e, 0xd2, 0x77, 0xbe,
  0xfa, 0xf0, 0x05, 0x3e, 0x61, 0x36, 0x80, 0xbe, 0x2e, 0x97, 0xc5, 0xbd,
  0x46, 0x6b, 0xec, 0xbd, 0x6a, 0xd4, 0x3a, 0x3e, 0x4c, 0x8a, 0x44, 0xbd,
  0x18, 0x51, 0xd0, 0x3d, 0x48, 0x67, 0x5d, 0xbe, 0x73, 0x11, 0x58, 0xbe,
  0xc8, 0x1c, 0xe4, 0x3d, 0xc0, 0xf5, 0x03, 0x3d, 0x80, 0xfb, 0xbf, 0x3d,
  0xdd, 0xf5, 0x40, 0xbe, 0x00, 0x7b, 0x8d, 0x3c, 0x20, 0x31, 0xd5, 0x3d,
  0x88, 0xcb, 0xd9, 0xbd, 0x80, 0x56, 0xdb, 0x3c, 0xa1, 0x86, 0x48, 0xbe,
  0x30, 0x14, 0x49, 0xbe, 0x00, 0x5e, 0x90, 0x3b, 0x04, 0xb9, 0x63, 0xbd,
  0x44, 0xea, 0x17, 0x3e, 0xfd, 0x7d, 0xdf, 0xbd, 0x23, 0x8e, 0x16, 0xbe,
  0x63, 0x37, 0x07, 0x3e, 0xa8, 0xf4, 0xcb, 0xbd, 0x71, 0x7e, 0x60, 0x3d,
  0x03, 0xce, 0x67, 0xbd, 0x1f, 0x5d, 0x8e, 0x3d, 0xf7, 0xb3, 0xfa, 0x3d,
  0x5e, 0xe0, 0xc5, 0xbd, 0x3a, 0xd6, 0x55, 0x3e, 0x26, 0x3c, 0x4e, 0xbe,
  0xa5, 0x72, 0xbe, 0x3b, 0xec, 0xf3, 0xbb, 0x3d, 0xde, 0x8e, 0xd0, 0xbd,
  0x7e, 0xe0, 0x07, 0x3e, 0x43, 0x8b, 0x12, 0xbe, 0xb7, 0x6b, 0x0f, 0x3e,
  0x20, 0x31, 0x0c, 0xbe, 0xcc, 0xa1, 0x82, 0xbd, 0xdf, 0xbb, 0x06, 0x3d,
  0x16, 0x12, 0xe2, 0xbd, 0xbd, 0x17, 0x73, 0x3e, 0x3a, 0x15, 0xb2, 0xbc,
  0x4e, 0x20, 0xf6, 0xbd, 0x95, 0xd1, 0x5f, 0x3e, 0xec, 0x2d, 0x43, 0x3b,
  0x0f, 0x9e, 0x61, 0xbe, 0x64, 0x67, 0x27, 0x3d, 0x32, 0x44, 0x08, 0xbb,
  0xf2, 0xdf, 0xff, 0xff, 0x04, 0x00, 0x00, 0x00, 0x00, 0x20, 0x00, 0x00,
  0x39, 0xb5, 0x1e, 0xbe, 0x37, 0x68, 0x4a, 0xbe, 0x5d, 0x98, 0x45, 0xbd,
  0x71, 0x4a, 0xb7, 0xbd, 0x28, 0xb7, 0x67, 0xbd, 0x0b, 0xb1, 0xc0, 0x3d,
  0xbf, 0x66, 0x85, 0xbe, 0xcd, 0xca, 0xfd, 0x3d, 0x5d, 0xa4, 0x34, 0xbd,
  0xd6, 0x0c, 0x9f, 0xbd, 0x12, 0x5a, 0xe4, 0x3d, 0xe6, 0xdf, 0x92, 0x3d,
  0x39, 0xdc, 0x37, 0x3e, 0x88, 0xa2, 0xd4, 0xbd, 0x36, 0x8b, 0x1e, 0x3c,
  0x3b, 0xec, 0x9f, 0x3d, 0xc8, 0x90, 0x80, 0xbd, 0xd6, 0xf3, 0x91, 0xbd,
  0xca, 0x58, 0x0c, 0x3d, 0x0c, 0xf4, 0xcc, 0x3d, 0xc7, 0x19, 0x45, 0xbe,
  0x24, 0x6b, 0x2e, 0x3d, 0xe5, 0x80, 0x3c, 0x3e, 0xcc, 0x0e, 0x14, 0x3e,
  0xab, 0x1d, 0x1d, 0x3e, 0xec, 0xbd, 0x17, 0xbe, 0xee, 0xc2, 0x70, 0x3e,
  0xdf, 0xa6, 0x6e, 0xbc, 0xe9, 0xc6, 0x79, 0xbe, 0x94, 0x96, 0x19, 0xbe,
  0x7a, 0xfa, 0x8b, 0x3c, 0x0b, 0x54, 0xf1, 0xbd, 0x18, 0xdd, 0x09, 0x3e,
  0xeb, 0xdf, 0x70, 0x3e, 0xb7, 0x8b, 0x28, 0xbe, 0x82, 0x5b, 0x2e, 0x3e,
  0xaf, 0x1d, 0x3d, 0xbd, 0x54, 0x07, 0x1f, 0x3c, 0xf9, 0x3c, 0xcf, 0x3d,
  0x5b, 0x02, 0xcf, 0x3d, 0x0f, 0x20, 0x49, 0xbb, 0xd6, 0x37, 0x69, 0x3e,
  0x7d, 0x9c, 0x4b, 0x3e, 0x84, 0x28, 0xe4, 0x3d, 0x37, 0x46, 0xde, 0x3d,
  0x4f, 0x6d, 0x3f, 0x3e, 0xa4, 0x43, 0x32, 0x3e, 0xed, 0x3e, 0x44, 0xbe,
  0xf3, 0x80, 0x9e, 0x3a, 0xc7, 0xa7, 0x32, 0x3c, 0x5f, 0x4b, 0x61, 0xbe,
  0xf5, 0xac, 0x73, 0xbe, 0x8d, 0x5c, 0xd3, 0xbd, 0xb4, 0x8e, 0xd4, 0xbc,
  0x68, 0x95, 0xcc, 0xbd, 0x23, 0x6f, 0xd6, 0xbd, 0x5c, 0x2b, 0xf5, 0xbc,
  0x97, 0xd4, 0x67, 0xbe, 0x32, 0xd9, 0xbf, 0x3a, 0x96, 0x7c, 0xe5, 0x3d,
  0xc7, 0x20, 0xf4, 0x3d, 0x03, 0xaa, 0x6c, 0xbd, 0xc0, 0x4f, 0xd8, 0xbc,
  0xd3, 0x93, 0xaa, 0x3c, 0x03, 0xcf, 0x08, 0xbe, 0x24, 0x04, 0x44, 0xbe,
  0x79, 0x73, 0x75, 0x3e, 0x84, 0x2a, 0xf7, 0xbd, 0x0f, 0xc5, 0xad, 0xbd,
  0x4a, 0xc9, 0x03, 0x3e, 0x90, 0x98, 0x15, 0x3e, 0x00, 0x8c, 0x2c, 0xbe,
  0x15, 0xc5, 0x04, 0xbe, 0x30, 0x1f, 0x8a, 0x3e, 0xe2, 0xdc, 0x66, 0x3e,
  0xb7, 0x63, 0x7c, 0xbe, 0xd1, 0x5b, 0x22, 0xbd, 0xd7, 0x04, 0x72, 0xbe,
  0x75, 0x2c, 0x3c, 0x3e, 0x37, 0xd9, 0x04, 0xbe, 0x58, 0x7f, 0xd4, 0xbd,
  0xd3, 0x55, 0x87, 0xbc, 0x32, 0xe2, 0x8c, 0x3d, 0x74, 0x9e, 0x95, 0x3e,
  0xba, 0xac, 0x1a, 0x3e, 0x32, 0x56, 0x29, 0x3e, 0x4f, 0x6d, 0x1f, 0xbd,
  0xd7, 0x2f, 0x63, 0xbd, 0x03, 0x60, 0x83, 0xbd, 0x1f, 0x89, 0xa6, 0x3e,
  0x67, 0x5e, 0x82, 0xbd, 0x0d, 0x14, 0xb8, 0x3e, 0xa4, 0xd5, 0x9d, 0x3d,
  0x24, 0xa6, 0x83, 0x3e, 0x03, 0x74, 0x24, 0xbe, 0xdb, 0x89, 0x14, 0xbd,
  0x82, 0x61, 0xe3, 0x3d, 0x2e, 0x7d, 0x82, 0xbe, 0xde, 0x60, 0x10, 0xbe,
  0x68, 0xf0, 0xea, 0xbd, 0xd9, 0x4d, 0xc1, 0x3e, 0x3f, 0x22, 0x5f, 0xbc,
  0x43, 0x40, 0xd6, 0x3d, 0xec, 0x4f, 0x7e, 0xbd, 0xd0, 0x92, 0xa6, 0x3e,
  0x48, 0x2e, 0x5f, 0xbe, 0x53, 0x0a, 0xee, 0xbd, 0xd5, 0x0d, 0xb1, 0x3e,
  0xb4, 0x45, 0xdc, 0x3b, 0x53, 0x9c, 0x13, 0xbe, 0xa5, 0xf5, 0x30, 0x3e,
  0xd5, 0xfc, 0x6a, 0xbe, 0x54, 0xc8, 0x16, 0x3e, 0xb2, 0x59, 0xf5, 0xbd,
  0x48, 0xef, 0x73, 0xbe, 0xe5, 0xe8, 0xf2, 0x3d, 0xdf, 0xe7, 0x2a, 0xbe,
  0xcf, 0x44, 0xd3, 0xbd, 0x98, 0x3f, 0x25, 0xbe, 0xd5, 0x5c, 0xbb, 0x3d,
  0xa5, 0x8b, 0x76, 0x3d, 0x5a, 0xd5, 0x1e, 0x3e, 0xf4, 0x0a, 0x02, 0xbe,
  0xf8, 0xc2, 0xdc, 0x3d, 0x38, 0xd7, 0x83, 0xbd, 0xdd, 0x64, 0xfa, 0x3c,
  0x5c, 0x84, 0x5a, 0xbe, 0xaa, 0xce, 0x93, 0xbd, 0x4f, 0x48, 0x0d, 0xbe,
  0x46, 0x01, 0x34, 0x3e, 0x45, 0x90, 0xb6, 0x3c, 0xa1, 0x48, 0x1b, 0x3e,
  0x16, 0x5a, 0xbc, 0x3d, 0x4e, 0x36, 0x80, 0x3d, 0x13, 0x55, 0x08, 0xbd,
  0xd4, 0xf2, 0xf0, 0xbd, 0x1a, 0xcb, 0x15, 0xbe, 0x35, 0x0f, 0x2a, 0x3e,
  0xf4, 0x80, 0x8f, 0x3c, 0x49, 0x51, 0x28, 0x3e, 0xe2, 0x42, 0x42, 0xbe,
  0x59, 0xf4, 0x19, 0x3d, 0xa9, 0x97, 0x95, 0x3d, 0x82, 0x1d, 0x70, 0xbe,
  0x80, 0xc7, 0xf4, 0x3c, 0x8d, 0x23, 0x57, 0xbe, 0x22, 0xb9, 0xfa, 0x3d,
  0x9c, 0x38, 0xec, 0x3d, 0x02, 0x21, 0x46, 0x3e, 0xa4, 0xaf, 0x2e, 0x3e,
  0x36, 0x46, 0x8c, 0xbe, 0x33, 0x9d, 0x18, 0xbe, 0xbb, 0xb3, 0x62, 0x3e,
  0x62, 0x78, 0x1c, 0x3e, 0xfd, 0xc2, 0x21, 0x3e, 0x0d, 0x8a, 0xe8, 0x3c,
  0x9d, 0x34, 0x01, 0xbe, 0x89, 0xae, 0x47, 0xbc, 0x3f, 0x39, 0xc7, 0xbd,
  0xaa, 0xe1, 0x0c, 0x3e, 0x54, 0x0b, 0x34, 0x3d, 0xa2, 0x85, 0x75, 0x3d,
  0x8a, 0x7a, 0xd1, 0xbd, 0x50, 0xb7, 0x45, 0xbc, 0xd6, 0xb9, 0x6c, 0xbe,
  0x23, 0x50, 0x48, 0xbe, 0x82, 0xdd, 0x8d, 0xbe, 0x56, 0x26, 0x18, 0xbe,
  0x12, 0x26, 0xc3, 0xbd, 0x80, 0x6e, 0xed, 0xbd, 0x91, 0x25, 0x70, 0xbe,
  0x48, 0x3d, 0x12, 0x3c, 0xc6, 0x77, 0x7a, 0x3d, 0x7f, 0x84, 0xdf, 0x3d,
  0x3b, 0xef, 0x33, 0xbd, 0xd0, 0x18, 0x16, 0xbe, 0xee, 0xd7, 0xdf, 0xbd,
  0x7a, 0xb5, 0x50, 0xbe, 0xcd, 0xfc, 0x29, 0xbe, 0x0c, 0x86, 0xcd, 0x3d,
  0xd3, 0xfc, 0x88, 0xbe, 0xd7, 0xe7, 0x6d, 0xbe, 0x0c, 0x6f, 0x3c, 0xbe,
  0xbf, 0xb1, 0x47, 0xbe, 0xc0, 0x46, 0x2c, 0x3c, 0xce, 0x85, 0x32, 0xbd,
  0x42, 0xdf, 0x13, 0x3c, 0x5d, 0x3b, 0xf9, 0xbb, 0xef, 0x1f, 0x5a, 0xbe,
  0x1f, 0xd4, 0x17, 0x3d, 0x20, 0xa0, 0xb5, 0x3c, 0xfc, 0x81, 0x3c, 0xbe,
  0x5f, 0xc8, 0x6e, 0xbb, 0xef, 0x29, 0xeb, 0x3c, 0x67, 0xaa, 0x10, 0x3e,
  0xce, 0x1d, 0xfd, 0xbb, 0x48, 0x85, 0x47, 0x3e, 0x67, 0x58, 0xba, 0x3d,
  0x6c, 0x9b, 0x9e, 0x3d, 0xc8, 0x8c, 0x4c, 0xbd, 0xec, 0x72, 0x6d, 0xbe,
  0xc8, 0x69, 0x8f, 0x3e, 0xd9, 0x5c, 0xb0, 0xbd, 0x62, 0x0a, 0xbb, 0xba,
  0x5b, 0xfe, 0x18, 0xbd, 0xc1, 0x38, 0x1e, 0xbe, 0xa7, 0xdf, 0x77, 0x3d,
  0xa6, 0xa5, 0x01, 0xbe, 0x50, 0xb7, 0x1f, 0x3d, 0x42, 0x1c, 0xcd, 0xbd,
  0x52, 0x26, 0x10, 0xbe, 0x2a, 0xfb, 0x1d, 0xbe, 0xc5, 0x6b, 0xa9, 0x3d,
  0x47, 0x79, 0x48, 0xbe, 0x1b, 0xc5, 0xa7, 0x3d, 0x15, 0x87, 0xf5, 0x3c,
  0xbf, 0x7c, 0x33, 0x3d, 0xcf, 0x18, 0xfb, 0x3d, 0xcb, 0x2e, 0x0c, 0x3e,
  0x45, 0x3c, 0xa5, 0xbd, 0xcc, 0x4a, 0xd4, 0xbc, 0xd4, 0x40, 0xaf, 0xbd,
  0x31, 0x18, 0x2a, 0xbd, 0xe7, 0x5e, 0xa5, 0xbd, 0x56, 0x05, 0x40, 0xbc,
  0xab, 0xdd, 0x56, 0xbd, 0x2b, 0xc7, 0xe6, 0x3d, 0xc2, 0xb1, 0xd6, 0xbd,
  0xf9, 0xae, 0xea, 0x3d, 0x76, 0xea, 0xb8, 0x3d, 0x38, 0x86, 0xfe, 0x3d,
  0x26, 0xe3, 0xf3, 0x3c, 0x3a, 0x1b, 0xa9, 0xbd, 0x9b, 0x15, 0xbd, 0xbc,
  0xac, 0x9d, 0x97, 0xbd, 0x79, 0x64, 0x14, 0xbe, 0x77, 0xaa, 0x50, 0x3d,
  0x9c, 0x48, 0x4a, 0xbe, 0x0b, 0xc8, 0x83, 0x3d, 0xcc, 0x9b, 0x87, 0x3d,
  0x75, 0x4d, 0xe1, 0xbd, 0x1b, 0xe8, 0x52, 0x3e, 0xce, 0x9f, 0x21, 0x3c,
  0xf7, 0x2a, 0x1a, 0x3e, 0x76, 0x8f, 0xce, 0x3d, 0x63, 0xa5, 0x48, 0x3e,
  0x80, 0x44, 0x42, 0xbc, 0x04, 0xcb, 0xcf, 0xbd, 0xb4, 0xd9, 0x69, 0x3d,
  0x9a, 0xa9, 0xe9, 0xbd, 0xb5, 0xdf, 0xc9, 0xbd, 0x2c, 0x1d, 0x98, 0xbe,
  0x73, 0x49, 0xac, 0xbd, 0xb0, 0x44, 0x84, 0xbe, 0xa0, 0x0f, 0xb4, 0xbd,
  0xaa, 0x14, 0x86, 0xbe, 0x49, 0x8c, 0xec, 0xbd, 0xf8, 0x8f, 0xb6, 0xbd,
  0x4b, 0x9d, 0x04, 0xbe, 0x48, 0x37, 0x22, 0xbe, 0xdd, 0x72, 0x36, 0x3d,
  0x8c, 0x20, 0x16, 0x3e, 0x22, 0xb5, 0xe9, 0xbd, 0xa3, 0xf5, 0x0a, 0xbd,
  0x4a, 0x45, 0xb7, 0x3c, 0x02, 0x5f, 0x20, 0xbe, 0x41, 0x33, 0xe6, 0xbd,
  0x63, 0x13, 0xb3, 0x3d, 0x74, 0x2c, 0x3a, 0x3e, 0x29, 0x1d, 0x29, 0xbd,
  0x01, 0x4d, 0x0d, 0xbc, 0x72, 0xb6, 0xfd, 0x3d, 0x20, 0x06, 0x95, 0x3c,
  0x51, 0x4c, 0x4a, 0x3e, 0x8e, 0x95, 0x55, 0x3e, 0x25, 0x96, 0x38, 0xbe,
  0x77, 0xac, 0x2d, 0x3e, 0xd5, 0xa5, 0x4f, 0x3e, 0xae, 0x6c, 0xac, 0x3d,
  0xa2, 0x43, 0x7f, 0xbe, 0x1e, 0xf4, 0xb7, 0xbd, 0x8f, 0x29, 0x9f, 0x3b,
  0xf9, 0x62, 0x59, 0x3e, 0x7d, 0xe6, 0x57, 0xbd, 0x46, 0x59, 0x5c, 0xbd,
  0x48, 0x9a, 0x7e, 0x3d, 0xcd, 0x93, 0x51, 0x3d, 0x42, 0x78, 0xeb, 0xbd,
  0xd1, 0xba, 0x72, 0x3d, 0xcb, 0x16, 0x26, 0x3e, 0xea, 0x31, 0x24, 0xbe,
  0xa9, 0x5d, 0xd5, 0xbd, 0x1f, 0x1d, 0x8b, 0xbe, 0xd5, 0xd5, 0x23, 0x3e,
  0x0f, 0xc3, 0x03, 0x3d, 0x5d, 0x52, 0x56, 0x3b, 0xc4, 0xe3, 0x16, 0xbe,
  0xd6, 0x10, 0x67, 0xbe, 0x18, 0x22, 0x13, 0x3e, 0x6f, 0xb5, 0x98, 0xbe,
  0xd8, 0xef, 0x96, 0x3d, 0x50, 0xfe, 0x91, 0x3d, 0x9c, 0x3f, 0x80, 0xbd,
  0xf6, 0x08, 0x1a, 0x3e, 0x68, 0x69, 0x75, 0xbd, 0x89, 0x99, 0x18, 0x3d,
  0xbc, 0x4e, 0x3a, 0xbe, 0x9e, 0xf4, 0x83, 0x3d, 0xbf, 0x8a, 0xcc, 0x3d,
  0x56, 0x8f, 0xeb, 0xbd, 0xd0, 0x38, 0x71, 0x3d, 0x8b, 0xcc, 0xf7, 0xbd,
  0x8b, 0x58, 0x48, 0x3e, 0x49, 0x6e, 0x4b, 0x3e, 0x49, 0x64, 0x83, 0xbd,
  0x79, 0xe1, 0x77, 0xbe, 0xc8, 0x0e, 0x5e, 0xbb, 0xa1, 0x72, 0xce, 0xbd,
  0xd8, 0xb1, 0xac, 0xbd, 0xea, 0x17, 0x03, 0x3d, 0x9b, 0x79, 0xdc, 0xbd,
  0x4f, 0xd6, 0x9d, 0xbd, 0xd8, 0xe4, 0x2e, 0x3e, 0x05, 0x9f, 0xa9, 0x3d,
  0xd0, 0x99, 0xad, 0xbd, 0xff, 0x2b, 0x49, 0x3e, 0x45, 0xe4, 0x7f, 0xbe,
  0x65, 0xbd, 0x11, 0x3e, 0x06, 0xeb, 0x09, 0x3d, 0x3b, 0x15, 0x4a, 0x3e,
  0x1c, 0x25, 0xe8, 0x3c, 0x2e, 0xb7, 0x9a, 0x3d, 0xb7, 0xb4, 0x2e, 0xbe,
  0xa2, 0x9d, 0x91, 0x3c, 0x2f, 0xaa, 0x21, 0xbe, 0x6c, 0x7c, 0xab, 0xbc,
  0x00, 0xf8, 0x10, 0xbc, 0x49, 0x1b, 0x59, 0x3e, 0x73, 0x57, 0x15, 0x3e,
  0x4d, 0xae, 0x26, 0xbe, 0x69, 0xa2, 0xed, 0x3d, 0x9b, 0x4b, 0x06, 0xbe,
  0x5b, 0x85, 0x7a, 0xbd, 0xab, 0x46, 0xa6, 0x3c, 0xe0, 0x7e, 0xbf, 0x3d,
  0x3e, 0xb0, 0x0c, 0x3d, 0x9b, 0xf5, 0x38, 0xbe, 0x52, 0xb3, 0x26, 0x3e,
  0x5b, 0xfd, 0x23, 0xbc, 0x94, 0x1a, 0x05, 0x3e, 0xf5, 0x46, 0x8e, 0xbc,
  0x69, 0x47, 0x1e, 0x3e, 0x0a, 0x67, 0x00, 0x3e, 0x92, 0x92, 0x29, 0xbe,
  0x7e, 0xe9, 0xcd, 0x3d, 0xa7, 0xb9, 0xac, 0xbd, 0xc8, 0xef, 0x77, 0xbe,
  0x8e, 0xe9, 0xbd, 0x3d, 0x07, 0xae, 0x90, 0x3b, 0x6a, 0x14, 0xb4, 0x3a,
  0xd9, 0xf9, 0x08, 0x3e, 0xc2, 0x62, 0x37, 0xbe, 0xc6, 0x48, 0x53, 0x3e,
  0xa9, 0x37, 0xc0, 0xbd, 0x56, 0x4e, 0x23, 0x3e, 0x82, 0x66, 0x68, 0x3e,
  0x25, 0x64, 0x6b, 0xbd, 0x1b, 0xdf, 0x32, 0xbd, 0xa7, 0x48, 0x6b, 0x3e,
  0x1d, 0xe1, 0x6e, 0x3d, 0xdb, 0x20, 0x98, 0x3d, 0x37, 0xb5, 0x0b, 0xbe,
  0xce, 0x23, 0x82, 0xbc, 0xb2, 0xbb, 0xbb, 0x3d, 0x34, 0x32, 0x5f, 0x3e,
  0x45, 0x90, 0x63, 0xbe, 0x63, 0x33, 0x25, 0xbe, 0x2f, 0x88, 0x6d, 0x3d,
  0x63, 0xad, 0x6c, 0x3e, 0xba, 0x01, 0xf5, 0xbd, 0x5c, 0x44, 0x81, 0xbd,
  0xf2, 0x6a, 0x81, 0x3c, 0xb8, 0x20, 0x83, 0x3d, 0x8c, 0x88, 0x32, 0xbb,
  0x3c, 0x3b, 0xd9, 0xbd, 0xb5, 0x15, 0x80, 0xbd, 0xd0, 0x12, 0xc3, 0xbd,
  0xc7, 0xbc, 0x85, 0xbd, 0x52, 0xb9, 0x2d, 0xbe, 0x43, 0xa5, 0x4a, 0xbe,
  0x0a, 0xeb, 0xd9, 0xbd, 0xaa, 0x00, 0x90, 0x3d, 0x3e, 0x46, 0x25, 0xbd,
  0x93, 0x50, 0x53, 0x3e, 0x12, 0x51, 0xa5, 0x3c, 0x99, 0xf5, 0x43, 0xbc,
  0x9a, 0xcc, 0xb7, 0x3d, 0xc9, 0x79, 0x46, 0xbe, 0xa3, 0x18, 0x08, 0x3e,
  0x14, 0x0f, 0x0a, 0xbe, 0xd8, 0x49, 0xdb, 0x3d, 0xed, 0x71, 0x4f, 0xbe,
  0x67, 0x3a, 0x39, 0x3e, 0x6c, 0x01, 0x51, 0x3e, 0x5d, 0xdd, 0xb9, 0x3d,
  0xa5, 0xa7, 0x36, 0x3e, 0x66, 0x22, 0x9b, 0x3d, 0x77, 0x74, 0x3a, 0x3e,
  0x8e, 0x0f, 0xcd, 0x3d, 0x46, 0xd6, 0x64, 0xbe, 0x9f, 0xb4, 0x6e, 0xbe,
  0x2e, 0xf6, 0x25, 0xbe, 0xc2, 0x5e, 0x03, 0xbd, 0x42, 0x7f, 0x6e, 0x3e,
  0xda, 0x8b, 0xc0, 0xbe, 0x83, 0xc3, 0x1e, 0xbe, 0x6f, 0xd4, 0x06, 0x3e,
  0x92, 0xbb, 0x1b, 0xbe, 0x24, 0x9d, 0x10, 0xbd, 0xeb, 0xb4, 0x5e, 0x3c,
  0x16, 0xef, 0x29, 0x3e, 0xae, 0x35, 0x33, 0xbe, 0xfc, 0xa5, 0xe6, 0xbd,
  0xc2, 0x8c, 0x57, 0xbe, 0xf9, 0x9d, 0x24, 0x3e, 0x22, 0xb8, 0x0e, 0x3e,
  0x53, 0x49, 0xdb, 0x3d, 0xca, 0xcc, 0x83, 0x3d, 0xb4, 0xfb, 0x8d, 0xbe,
  0x0f, 0xad, 0x87, 0x3e, 0x6b, 0xf5, 0xe5, 0x3d, 0xaf, 0xab, 0x02, 0x3e,
  0x7a, 0xdf, 0xaf, 0x3d, 0x7a, 0xb4, 0xd8, 0xbd, 0x96, 0xce, 0x18, 0x3d,
  0x45, 0x47, 0x06, 0x3e, 0x3d, 0xc6, 0xda, 0x3d, 0x0d, 0x51, 0x57, 0x3e,
  0x84, 0x45, 0x2b, 0x3e, 0x2b, 0x03, 0xba, 0x3d, 0xf7, 0xe0, 0x1e, 0x3e,
  0xd5, 0x86, 0xd5, 0xbd, 0x92, 0xeb, 0x24, 0xbe, 0x41, 0x13, 0x38, 0x3d,
  0x5e, 0x68, 0x48, 0xbe, 0xf0, 0xa3, 0x70, 0xbe, 0xf8, 0x86, 0x2d, 0xbe,
  0x97, 0xa3, 0x6f, 0x3d, 0x7e, 0xec, 0x5e, 0xbe, 0x81, 0xf4, 0xe1, 0xbd,
  0x17, 0x87, 0x32, 0x3d, 0xbe, 0x23, 0xc8, 0x3d, 0x77, 0x34, 0x83, 0x3e,
  0x82, 0x86, 0x54, 0x3e, 0xf7, 0xaa, 0xac, 0x3e, 0x38, 0xec, 0xbd, 0x3b,
  0x8b, 0x92, 0x91, 0xbd, 0xa3, 0x25, 0x60, 0x3e, 0x8c, 0xbe, 0x92, 0x3d,
  0x5b, 0xa7, 0x54, 0x3e, 0xed, 0x00, 0xd1, 0xbd, 0x89, 0x41, 0x27, 0x3d,
  0x23, 0x81, 0x47, 0xbe, 0xc8, 0xd2, 0x16, 0xbe, 0x00, 0x32, 0xec, 0x3a,
  0x32, 0x3e, 0x9a, 0xbe, 0xfe, 0x84, 0x6d, 0xbd, 0x33, 0xb0, 0x4a, 0x3d,
  0xca, 0xc9, 0x9a, 0x3d, 0xd9, 0xb8, 0xb4, 0x3d, 0x8f, 0x57, 0xf9, 0xbc,
  0xb7, 0x54, 0x98, 0xbd, 0xd9, 0x79, 0x38, 0x3e, 0xb3, 0x53, 0x29, 0x3e,
  0x65, 0x79, 0x72, 0xbe, 0xb2, 0x5c, 0x43, 0x3e, 0xca, 0xbf, 0x67, 0x3e,
  0xfd, 0x5f, 0xea, 0x3d, 0x23, 0xc9, 0x0d, 0xbe, 0x4e, 0x44, 0x07, 0xbe,
  0xa2, 0x6c, 0x37, 0x3d, 0xc3, 0xee, 0x7d, 0x3e, 0x90, 0x98, 0x0b, 0xbd,
  0x28, 0x55, 0xd8, 0x3d, 0xc6, 0xbb, 0xc6, 0x3d, 0x6e, 0x74, 0x4a, 0xbd,
  0x9a, 0xbe, 0x39, 0x3e, 0xb9, 0x15, 0x73, 0xbe, 0x94, 0x68, 0x9e, 0x3d,
  0xd5, 0x86, 0xef, 0x3d, 0x87, 0x82, 0x66, 0xbe, 0x35, 0xcb, 0x32, 0x3e,
  0xfc, 0x39, 0xbe, 0xbd, 0xbe, 0x34, 0x8c, 0x3d, 0xfd, 0x49, 0x18, 0xbc,
  0xd4, 0x09, 0xd4, 0xbd, 0xe4, 0x61, 0x7f, 0xbe, 0x8e, 0x17, 0x78, 0x3e,
  0xae, 0xf7, 0x4e, 0xbd, 0x02, 0xb3, 0x1e, 0x3e, 0x7d, 0x94, 0x8f, 0xbe,
  0x00, 0xe2, 0x0e, 0x3e, 0xd0, 0x8e, 0xca, 0xbd, 0x70, 0x41, 0x99, 0x3e,
  0xcb, 0x81, 0xb4, 0xbd, 0x54, 0xe1, 0x66, 0xbd, 0x08, 0x16, 0x3e, 0x3d,
  0xc4, 0x7a, 0x79, 0xbe, 0xd4, 0xa5, 0x8b, 0x3d, 0x49, 0xd3, 0xab, 0x3d,
  0x40, 0x53, 0x6e, 0xbc, 0x27, 0x1d, 0x6e, 0xbe, 0x31, 0x3f, 0x5a, 0xbe,
  0xdb, 0x47, 0x08, 0x3e, 0xb8, 0x86, 0x12, 0xbe, 0xe0, 0x63, 0xd6, 0x3d,
  0x06, 0xbb, 0xb2, 0x3c, 0x7e, 0xbe, 0xd7, 0x3d, 0xf9, 0x7c, 0x8d, 0x3d,
  0xd5, 0xe8, 0x82, 0xbe, 0xbf, 0x2d, 0x6f, 0xbe, 0xf4, 0x54, 0x17, 0xbe,
  0x29, 0xde, 0x8e, 0x3d, 0x86, 0x58, 0xbe, 0xbd, 0x03, 0x4d, 0xed, 0xbd,
  0x22, 0xdf, 0xb0, 0x3a, 0xc3, 0x5d, 0xcb, 0x3d, 0x98, 0xc2, 0x91, 0x3d,
  0x80, 0x56, 0xf1, 0x3c, 0x44, 0x90, 0xd4, 0xbc, 0x8b, 0x99, 0x65, 0xbe,
  0x94, 0x6b, 0x10, 0x3e, 0x91, 0xce, 0x42, 0xbe, 0x79, 0x4c, 0x03, 0xbe,
  0xd6, 0xf2, 0x1a, 0x3e, 0xc8, 0x96, 0x10, 0x3e, 0xde, 0xe0, 0x09, 0x3e,
  0x35, 0x90, 0x1e, 0xbd, 0x02, 0x13, 0x3e, 0x3e, 0x85, 0x03, 0xc1, 0x3d,
  0x1b, 0x73, 0xa6, 0x3c, 0x4c, 0xac, 0xd5, 0x3d, 0x67, 0x4c, 0xfb, 0xbd,
  0xe0, 0x7a, 0x3a, 0x3d, 0x17, 0x86, 0x39, 0xbb, 0xae, 0x12, 0xaf, 0x3d,
  0x9e, 0x06, 0x8b, 0xbe, 0x72, 0x6c, 0x5b, 0xbe, 0x2d, 0x65, 0x24, 0xbd,
  0xa5, 0x66, 0xd0, 0xbd, 0x81, 0x18, 0x23, 0xbe, 0xaa, 0x59, 0xdb, 0xbc,
  0xb1, 0xf9, 0x5c, 0x3e, 0xf5, 0x03, 0x56, 0xbe, 0x99, 0x0d, 0xe1, 0x3b,
  0x14, 0x84, 0xcd, 0x3d, 0x09, 0x44, 0x6b, 0x3d, 0x12, 0xe3, 0x4e, 0xbd,
  0x38, 0x29, 0x51, 0xbd, 0x0e, 0xae, 0xca, 0x3d, 0x42, 0x29, 0x13, 0x3e,
  0x86, 0xc6, 0x21, 0xbe, 0xdc, 0x1a, 0x06, 0xbe, 0xf5, 0x71, 0x0c, 0xbd,
  0xf6, 0x24, 0xa6, 0xbd, 0x6a, 0x47, 0x1d, 0xbe, 0xcc, 0xfe, 0x3e, 0xbe,
  0xe0, 0x92, 0x2d, 0xbe, 0x74, 0xf3, 0x26, 0xbe, 0xf7, 0x46, 0xce, 0x3c,
  0xd6, 0xa1, 0x66, 0x3e, 0x12, 0x48, 0xc1, 0x3d, 0x1f, 0xb9, 0x0d, 0xbe,
  0x2f, 0xc2, 0x10, 0xbe, 0x60, 0xc0, 0xe0, 0xbd, 0x4c, 0xf5, 0x01, 0x3e,
  0x3c, 0x8b, 0x6c, 0xbe, 0x7e, 0x61, 0x85, 0x3d, 0x05, 0x2b, 0x7f, 0xbd,
  0xe7, 0x8c, 0x60, 0xbe, 0x69, 0xc2, 0x71, 0xbe, 0xc2, 0x2b, 0xe4, 0x3c,
  0x9d, 0x32, 0x4c, 0x3c, 0x30, 0x05, 0xcc, 0xbc, 0xaf, 0x56, 0xb4, 0x3d,
  0xf6, 0xc4, 0xf7, 0xbd, 0xee, 0xd5, 0x90, 0x3c, 0xfc, 0x15, 0x6b, 0xbe,
  0xae, 0x68, 0x42, 0xbc, 0xbd, 0xff, 0x36, 0x3c, 0x34, 0x13, 0xb3, 0x3d,
  0xfc, 0x8a, 0xdb, 0x3d, 0x08, 0x47, 0x56, 0xbe, 0x40, 0x32, 0x8e, 0x3e,
  0xa3, 0x29, 0xa0, 0x3d, 0x97, 0xf5, 0x87, 0xbd, 0xba, 0x33, 0x92, 0xbb,
  0x97, 0xf5, 0x62, 0xbd, 0x07, 0xcb, 0x0d, 0xbc, 0x2b, 0x4c, 0xfc, 0xbd,
  0x2d, 0xcb, 0xc1, 0x3d, 0xd1, 0x88, 0x4e, 0xbe, 0x10, 0x53, 0x76, 0x3d,
  0xd3, 0x4c, 0xdf, 0xbd, 0xcc, 0x78, 0x51, 0xbc, 0x33, 0x7c, 0x90, 0xbd,
  0x46, 0x5e, 0x16, 0x3d, 0xdb, 0x6b, 0x2e, 0xbe, 0x82, 0x64, 0x49, 0xbe,
  0x1c, 0x73, 0x2d, 0xbe, 0x96, 0x73, 0x06, 0xbd, 0xbf, 0x29, 0x93, 0x3d,
  0x0c, 0x2d, 0x77, 0xbe, 0x83, 0xf6, 0x4b, 0x3e, 0x01, 0xd3, 0xbb, 0xbd,
  0x13, 0x99, 0x1f, 0xbe, 0x89, 0x72, 0xfc, 0xbd, 0xec, 0x99, 0xf9, 0x3c,
  0xb2, 0x71, 0x98, 0xbd, 0xce, 0xc2, 0x58, 0xbe, 0x6c, 0xbf, 0x0c, 0x3e,
  0xcd, 0x62, 0x25, 0xbc, 0x30, 0xb5, 0x51, 0xbe, 0xdb, 0xf7, 0x3c, 0x3e,
  0x87, 0xfb, 0x92, 0x3d, 0xef, 0xca, 0x0d, 0xbd, 0xf9, 0x8d, 0x79, 0x3e,
  0x45, 0x52, 0xaa, 0x3d, 0xa3, 0xd1, 0x51, 0x3e, 0xa4, 0x51, 0x32, 0xbe,
  0x60, 0x35, 0xcc, 0xbd, 0x9a, 0x80, 0xdd, 0xbd, 0x73, 0x2a, 0x63, 0xbe,
  0x19, 0xb5, 0x4c, 0x3e, 0x2a, 0xa6, 0x99, 0x3c, 0xaa, 0x46, 0x4c, 0x3e,
  0x6e, 0x29, 0x51, 0x3e, 0x8c, 0xf9, 0x09, 0x3e, 0x60, 0x7a, 0x56, 0xbe,
  0x63, 0xa1, 0x18, 0x3e, 0xc8, 0x20, 0x15, 0xbd, 0x46, 0xf9, 0x1f, 0xbe,
  0x01, 0x67, 0x17, 0x3e, 0x58, 0x0d, 0x3f, 0x3d, 0xe9, 0x27, 0xf9, 0xbc,
  0x94, 0x57, 0x48, 0x3d, 0x63, 0xac, 0xb6, 0xbd, 0xf9, 0x50, 0x11, 0xbe,
  0x04, 0x0a, 0x3a, 0xbe, 0x26, 0xd0, 0x56, 0xbd, 0xd5, 0x9b, 0x17, 0x3e,
  0x83, 0xb6, 0x3e, 0x3d, 0xa4, 0xd0, 0x60, 0xbe, 0xe6, 0x9b, 0xf1, 0x3d,
  0x49, 0x6f, 0xea, 0x3d, 0x9e, 0xb0, 0xa0, 0xbd, 0x40, 0xf8, 0x8d, 0xbc,
  0x7e, 0xb8, 0x49, 0x3e, 0x5e, 0x9b, 0xa2, 0x3d, 0xc3, 0xa7, 0x86, 0xbd,
  0xbb, 0x42, 0x07, 0x3e, 0x62, 0x23, 0x08, 0x3e, 0xa4, 0x68, 0xed, 0x3d,
  0x18, 0xd2, 0x62, 0x3d, 0x87, 0x37, 0x0d, 0x3e, 0xe3, 0x5c, 0xf5, 0xbd,
  0x44, 0x0e, 0x20, 0xbe, 0xbf, 0x6e, 0x5e, 0xbe, 0xef, 0x89, 0x2d, 0xbd,
  0x29, 0xda, 0x66, 0xbe, 0x08, 0xaf, 0x8f, 0xbc, 0x48, 0x34, 0x70, 0xbe,
  0x87, 0x7c, 0x71, 0xbe, 0xce, 0x1e, 0x5e, 0xbe, 0xbc, 0xaf, 0x63, 0x3d,
  0xbe, 0x3c, 0x16, 0x3e, 0x26, 0x96, 0x1c, 0x3e, 0x3c, 0xdd, 0xe5, 0xbd,
  0x4d, 0xc2, 0x08, 0x3e, 0x3a, 0x06, 0x9b, 0x3d, 0x4c, 0x91, 0x0e, 0xbd,
  0x03, 0x5a, 0x93, 0xbd, 0xcb, 0xd1, 0x86, 0xbd, 0x05, 0x97, 0x04, 0xbe,
  0xa3, 0x22, 0x04, 0xbe, 0x40, 0xa7, 0xe5, 0x3d, 0xb3, 0x8f, 0x4c, 0xbe,
  0xc5, 0xce, 0xee, 0xbd, 0x65, 0x02, 0x22, 0xbe, 0xb2, 0x12, 0xe9, 0xbd,
  0x9e, 0xa2, 0x3e, 0x3e, 0xd4, 0xdf, 0x18, 0x3d, 0x8f, 0xfc, 0x3c, 0x3e,
  0xd2, 0x7e, 0x7a, 0xbe, 0xe4, 0x61, 0x25, 0xbe, 0xbd, 0x57, 0x23, 0xbd,
  0x73, 0xfb, 0x3d, 0xbd, 0x28, 0x91, 0x3e, 0xbd, 0xa8, 0xcc, 0x72, 0xbe,
  0x23, 0xcb, 0xe8, 0x3c, 0xad, 0x8d, 0x6c, 0xbe, 0x50, 0x22, 0x63, 0xbe,
  0xe8, 0x47, 0x3c, 0xbe, 0x67, 0x45, 0x05, 0x3c, 0xcd, 0x1b, 0x72, 0xbd,
  0xe6, 0xcf, 0x71, 0xbd, 0x55, 0x38, 0x95, 0xbd, 0x5d, 0x4e, 0x98, 0xbb,
  0xbd, 0xee, 0x1d, 0xbe, 0xca, 0xa9, 0x5d, 0x3e, 0x35, 0xa1, 0x26, 0x3e,
  0xf9, 0x92, 0x9c, 0xbd, 0xbc, 0xe7, 0x7d, 0x3c, 0x67, 0x80, 0x40, 0x3e,
  0x51, 0x3d, 0x07, 0xbd, 0x76, 0x3b, 0x04, 0xbd, 0x84, 0xe9, 0x01, 0x3e,
  0x95, 0xc8, 0x25, 0x3e, 0x55, 0x19, 0xed, 0xbd, 0xce, 0xb5, 0xa8, 0x3c,
  0x70, 0x12, 0x49, 0x3e, 0x45, 0xee, 0x29, 0xbe, 0x78, 0xce, 0x4f, 0xbe,
  0x9a, 0xdf, 0x23, 0x3d, 0x8f, 0x7a, 0xdf, 0x3d, 0x74, 0x38, 0x76, 0xbc,
  0xff, 0x95, 0x5b, 0xbe, 0x27, 0x1b, 0x3c, 0x3e, 0x79, 0x8b, 0xba, 0xbd,
  0x31, 0x93, 0x2d, 0x3e, 0x72, 0x7b, 0xa6, 0x3d, 0xbf, 0x43, 0x9a, 0xbc,
  0x5b, 0x6e, 0x2f, 0xbe, 0x75, 0x48, 0x02, 0xbe, 0x6c, 0x77, 0x35, 0x3e,
  0x77, 0x7e, 0xb6, 0x3d, 0x33, 0xc3, 0x17, 0xbe, 0x4a, 0x92, 0x0e, 0x3e,
  0xd6, 0x81, 0x12, 0xbd, 0x98, 0xac, 0x4f, 0x3e, 0xdb, 0xb4, 0x31, 0xbe,
  0xd0, 0xbc, 0x44, 0xbe, 0xcd, 0xfe, 0x5c, 0x3e, 0x2b, 0x0b, 0x58, 0xbe,
  0x3d, 0x0e, 0x43, 0xbe, 0xaa, 0x9a, 0x6f, 0xbe, 0x6b, 0xf9, 0x9d, 0xbe,
  0xd5, 0x52, 0xa1, 0xbe, 0xaf, 0x1c, 0x71, 0xbe, 0x8a, 0x44, 0x69, 0xbe,
  0x3a, 0x25, 0x23, 0x3e, 0x5a, 0x22, 0x62, 0xbe, 0x35, 0x97, 0xab, 0xbc,
  0x21, 0x8a, 0x7f, 0xbd, 0x58, 0x86, 0x56, 0x3e, 0x43, 0xdd, 0x59, 0x3d,
  0xdd, 0x13, 0xdb, 0x3d, 0x12, 0xe2, 0x54, 0xbc, 0x80, 0x2a, 0x4f, 0xbe,
  0xeb, 0x0c, 0x88, 0xbe, 0xde, 0xd4, 0x2a, 0xbe, 0x08, 0xc3, 0x6c, 0xbe,
  0xcb, 0x34, 0x47, 0xbe, 0x1d, 0x04, 0xde, 0x3c, 0xdc, 0x23, 0x1f, 0x3e,
  0xe2, 0x65, 0x8b, 0xbe, 0xa8, 0x92, 0x6a, 0x3e, 0x2f, 0x66, 0xbb, 0x3d,
  0xc9, 0x4c, 0x0f, 0x3e, 0x85, 0x57, 0x33, 0xbe, 0x06, 0xb6, 0x8b, 0xbd,
  0x02, 0x6b, 0xb6, 0x3d, 0x22, 0x0e, 0x1b, 0x3e, 0x08, 0x11, 0xf9, 0x3d,
  0xf7, 0x23, 0x96, 0xbe, 0xfa, 0xc7, 0x30, 0x3e, 0x7c, 0xe2, 0x3d, 0xbd,
  0xbd, 0xb9, 0x10, 0x3e, 0xf3, 0x7a, 0x26, 0x3e, 0xdb, 0x0e, 0x85, 0x3c,
  0x2c, 0x5f, 0x4a, 0x3e, 0x07, 0x0d, 0xeb, 0x3d, 0x5f, 0xdb, 0xe7, 0x3c,
  0x12, 0x7e, 0x56, 0xbe, 0xf4, 0xc3, 0x6d, 0x3e, 0x1f, 0x05, 0x60, 0xbd,
  0x4e, 0xaf, 0x43, 0xbd, 0xf5, 0xd5, 0x1b, 0x3e, 0xdb, 0x81, 0x13, 0x3d,
  0xc8, 0xd3, 0x5d, 0x3d, 0x5f, 0x3a, 0x54, 0x3e, 0xbe, 0xd9, 0xd1, 0xbb,
  0xb5, 0xda, 0x38, 0x3d, 0x9d, 0x1d, 0x40, 0xbe, 0x0c, 0x34, 0x81, 0x3e,
  0x69, 0x3f, 0x0a, 0xbe, 0xc3, 0x8c, 0x5a, 0xbe, 0xb6, 0x21, 0x9c, 0x3d,
  0xfe, 0xf2, 0x30, 0x3e, 0x5a, 0x60, 0x5f, 0xbe, 0x4c, 0xa5, 0x86, 0xbd,
  0x9a, 0xa4, 0x0c, 0xbe, 0x31, 0xfa, 0x85, 0xbe, 0xd4, 0x1f, 0xfc, 0x3d,
  0x5d, 0x0b, 0x81, 0x3d, 0xf9, 0x39, 0xb6, 0xbd, 0x26, 0xb8, 0x8d, 0x3d,
  0x3f, 0x69, 0x7a, 0xbd, 0x6d, 0xf6, 0x87, 0xbd, 0xc2, 0xb7, 0xec, 0x3c,
  0x5a, 0x7e, 0x89, 0xbe, 0x55, 0x81, 0xef, 0xbd, 0x15, 0xc2, 0x3e, 0x3e,
  0x2f, 0xaa, 0x0b, 0x3e, 0x3a, 0xed, 0x82, 0xbe, 0x8a, 0x6c, 0x83, 0xbe,
  0xa3, 0xa2, 0x7d, 0x3d, 0x32, 0x90, 0x8d, 0xbe, 0x11, 0xb3, 0x2e, 0xbd,
  0x58, 0xce, 0x08, 0xbe, 0x2e, 0x9a, 0xf2, 0x3d, 0xe8, 0xea, 0xc6, 0x3d,
  0x10, 0xb2, 0x50, 0x3d, 0x3d, 0x99, 0x77, 0xbe, 0xcc, 0x6a, 0x2d, 0x3e,
  0x4d, 0x29, 0x93, 0x3d, 0xd0, 0xe3, 0x0c, 0x3d, 0x14, 0x31, 0x8e, 0xbc,
  0x83, 0x39, 0xfa, 0xbd, 0xb1, 0x44, 0x6d, 0xbe, 0xb0, 0x28, 0x42, 0xbe,
  0x71, 0x36, 0x0b, 0xbc, 0x8d, 0xcf, 0xda, 0xbd, 0x11, 0xef, 0x5f, 0xbe,
  0x15, 0x5a, 0x84, 0xbd, 0x5f, 0x57, 0x9f, 0x3d, 0xe5, 0x65, 0x61, 0xbe,
  0x8c, 0x31, 0xe7, 0xbd, 0x96, 0x5f, 0x2c, 0xbc, 0xaf, 0x75, 0x8d, 0x3d,
  0x68, 0xf1, 0x2e, 0xbe, 0xfd, 0x82, 0x01, 0xbe, 0x22, 0xb5, 0x40, 0xbe,
  0x8f, 0xc6, 0x00, 0xbe, 0x52, 0x88, 0x07, 0x3e, 0x81, 0xc4, 0x5f, 0x3e,
  0x48, 0xc8, 0xa3, 0xbd, 0x62, 0x6c, 0xda, 0xbb, 0x50, 0xd1, 0xef, 0xbd,
  0xdb, 0xd2, 0x00, 0xbe, 0x17, 0x09, 0x9d, 0xbd, 0x5f, 0x67, 0x99, 0xba,
  0x68, 0xd4, 0x80, 0xbe, 0x8c, 0x9e, 0x0a, 0xbe, 0xae, 0x3b, 0x7b, 0xbe,
  0x9e, 0xc2, 0xc2, 0xbc, 0xc8, 0xac, 0x5b, 0xbe, 0x7c, 0xbb, 0x89, 0xbe,
  0x5c, 0x3e, 0x01, 0x3e, 0xd8, 0x56, 0x54, 0x3e, 0x9b, 0x03, 0xca, 0x3d,
  0x99, 0xce, 0x13, 0x3e, 0xc0, 0x74, 0x64, 0x3d, 0xdf, 0xfc, 0x59, 0xbc,
  0x20, 0x84, 0x70, 0xbe, 0x12, 0x00, 0x2c, 0x3d, 0x9a, 0x8b, 0xe0, 0xbd,
  0x7a, 0x02, 0x28, 0xbe, 0x28, 0x71, 0x32, 0x3e, 0xf0, 0xbc, 0x65, 0x3c,
  0x76, 0x23, 0x07, 0xbe, 0x21, 0xe9, 0x2c, 0x3d, 0xdf, 0x8e, 0x61, 0xbe,
  0xaf, 0x6e, 0x38, 0x3e, 0x21, 0xc7, 0x0f, 0x3e, 0xce, 0x62, 0x1e, 0xbe,
  0x0d, 0x09, 0x8e, 0xbe, 0xb1, 0x59, 0x67, 0x3d, 0xc5, 0xcc, 0x35, 0xbe,
  0xdb, 0xea, 0x7b, 0x3d, 0x37, 0x5f, 0x17, 0xbe, 0xdd, 0x3e, 0x5c, 0x3c,
  0x04, 0x55, 0x35, 0x3e, 0x9a, 0x63, 0xa9, 0xbd, 0xe6, 0x63, 0xa5, 0x3b,
  0x24, 0xde, 0x33, 0xbe, 0xd0, 0xb9, 0x6a, 0x3d, 0x36, 0x76, 0x38, 0xbe,
  0x44, 0xc5, 0x22, 0x3e, 0xa5, 0x72, 0x82, 0xbe, 0x0a, 0xea, 0xce, 0xbc,
  0xfa, 0x90, 0x10, 0xbe, 0xfc, 0xbd, 0x28, 0x3e, 0x7f, 0x93, 0x8c, 0xbe,
  0xb8, 0xf9, 0x66, 0xbe, 0x2e, 0x6d, 0x16, 0xbd, 0x25, 0xc7, 0x3b, 0xbe,
  0x35, 0xb5, 0x18, 0xbd, 0x17, 0x0a, 0x63, 0xbe, 0x94, 0x9f, 0x11, 0x3d,
  0xbb, 0xbc, 0x39, 0x3e, 0x9c, 0x82, 0x1c, 0x3e, 0x0f, 0xdd, 0x58, 0xbe,
  0xbb, 0x71, 0x04, 0xbd, 0xd8, 0x6f, 0xf1, 0xbd, 0x46, 0x74, 0x6d, 0xbe,
  0xdc, 0x69, 0x51, 0x3e, 0xc8, 0xf8, 0x2f, 0x3c, 0x87, 0x90, 0x93, 0x3d,
  0xfc, 0xb8, 0x0f, 0x3e, 0x3a, 0x34, 0x3e, 0xbe, 0x13, 0xbe, 0x8f, 0xbe,
  0xdc, 0x35, 0x2c, 0x3e, 0xb6, 0x5e, 0xb1, 0x3e, 0xea, 0x69, 0x31, 0x3e,
  0x4e, 0x8c, 0x81, 0xbd, 0x8a, 0xa0, 0x33, 0xbe, 0x73, 0xd0, 0xb6, 0xbb,
  0x1b, 0xd6, 0x24, 0xbe, 0x84, 0x18, 0x0a, 0xbd, 0x6a, 0x6c, 0x71, 0xbe,
  0x89, 0xcf, 0x6b, 0xbe, 0x44, 0x02, 0x84, 0x3d, 0xba, 0xb4, 0xfe, 0xbd,
  0x0b, 0x25, 0x10, 0x3e, 0x66, 0xc0, 0x07, 0x3d, 0x41, 0x26, 0x2c, 0xbd,
  0xc5, 0x54, 0x3a, 0x3d, 0x97, 0xc9, 0x02, 0xbd, 0x5f, 0x21, 0xf3, 0x3c,
  0x15, 0xe5, 0x82, 0xbb, 0x7f, 0xd8, 0x96, 0xbc, 0xd4, 0x55, 0x22, 0x3d,
  0xda, 0xd9, 0x11, 0x3e, 0x8c, 0x8a, 0x80, 0xbd, 0x1a, 0xd3, 0x05, 0xbd,
  0x1d, 0xda, 0x8f, 0xbc, 0xc4, 0x9a, 0x9d, 0xbc, 0x6d, 0x22, 0xa8, 0x3c,
  0xce, 0xd9, 0x96, 0xbc, 0xd6, 0xf4, 0x63, 0xbe, 0x96, 0xd0, 0x7a, 0xbe,
  0xd0, 0xd2, 0x6b, 0xbc, 0x1c, 0x0c, 0x07, 0xbe, 0xa5, 0xd4, 0x4c, 0x3e,
  0x61, 0x8e, 0xbd, 0x3d, 0xf6, 0x7c, 0x2f, 0xbe, 0xf2, 0x87, 0x60, 0xbe,
  0x15, 0xc9, 0x14, 0x3e, 0xd2, 0x70, 0x22, 0x3e, 0x20, 0x9b, 0x2e, 0x3e,
  0x73, 0x81, 0x3b, 0x3d, 0x16, 0x53, 0x02, 0x3e, 0x78, 0xd7, 0x61, 0x3e,
  0xd4, 0x9a, 0xb0, 0xbd, 0x38, 0xb4, 0x2c, 0x3e, 0xf0, 0xb0, 0xfd, 0xbd,
  0x7d, 0x20, 0x18, 0xbe, 0x08, 0x7f, 0x9d, 0xbd, 0xfb, 0x4f, 0x6f, 0xbe,
  0x6a, 0x92, 0xeb, 0x3c, 0x61, 0x2d, 0x31, 0xbe, 0x92, 0x74, 0x43, 0xbd,
  0xec, 0xd3, 0x41, 0x3e, 0xc4, 0xe5, 0x14, 0xbc, 0xab, 0x68, 0xec, 0xbd,
  0x24, 0xf0, 0x6a, 0x3e, 0x7c, 0x3a, 0x37, 0xbe, 0xf0, 0xc4, 0x70, 0xbe,
  0x2f, 0x7c, 0x7a, 0x3e, 0x59, 0x91, 0x0f, 0xbe, 0xb0, 0x50, 0x9b, 0x3d,
  0x0e, 0x84, 0x57, 0xbd, 0x4b, 0x47, 0x84, 0xbe, 0x71, 0x2c, 0xd1, 0x3d,
  0x88, 0x57, 0x8b, 0x3d, 0xac, 0x23, 0x10, 0xbe, 0x1e, 0xb6, 0x10, 0xbe,
  0x5a, 0x31, 0x84, 0xbe, 0xf7, 0x93, 0x21, 0x3d, 0x34, 0x4b, 0x34, 0x3e,
  0x9d, 0xa2, 0x5d, 0x3e, 0x2a, 0xce, 0xc6, 0x3d, 0x03, 0xd1, 0x81, 0x3e,
  0x92, 0x77, 0x7b, 0xbc, 0xaa, 0xaa, 0x92, 0xbe, 0xed, 0x4f, 0x71, 0xbe,
  0x3f, 0x85, 0x31, 0x3e, 0x01, 0x21, 0x25, 0x3e, 0x9d, 0x89, 0x54, 0xbe,
  0x37, 0x23, 0xae, 0x3d, 0x7c, 0x2d, 0x76, 0xbd, 0xd5, 0x2c, 0x2f, 0x3e,
  0x22, 0x2c, 0x0b, 0x3e, 0x6e, 0xa5, 0x02, 0xbe, 0x9f, 0xa3, 0x34, 0x3e,
  0x34, 0x2a, 0x11, 0xbe, 0xd3, 0xb0, 0x23, 0x3d, 0x9d, 0xb1, 0x31, 0x3e,
  0x72, 0x89, 0x89, 0xbe, 0xd3, 0x53, 0x5f, 0x3e, 0x33, 0xe1, 0xe7, 0x3d,
  0xa7, 0x9b, 0x83, 0x3c, 0x92, 0x6f, 0x41, 0x3e, 0xa4, 0x8f, 0x75, 0xbe,
  0x5d, 0x03, 0x3e, 0x3e, 0x2c, 0x3f, 0x4f, 0x3d, 0x8a, 0xfd, 0xa5, 0x3d,
  0xd8, 0xbd, 0x82, 0xbe, 0x85, 0xe4, 0x64, 0x3c, 0x01, 0x7a, 0xcb, 0x3d,
  0x1a, 0x5e, 0x97, 0x3d, 0xc8, 0xca, 0x0e, 0xbe, 0x4a, 0x98, 0x25, 0xbe,
  0x14, 0x2e, 0x73, 0xbe, 0xf7, 0x5e, 0x09, 0xbe, 0x83, 0x29, 0xa0, 0xbe,
  0x4c, 0x8c, 0x0f, 0xbd, 0xb5, 0xc3, 0x2c, 0x3d, 0x55, 0xb5, 0x44, 0xbe,
  0x27, 0x7e, 0xed, 0x3c, 0xcc, 0x1d, 0x36, 0xbe, 0x80, 0x14, 0x29, 0xbc,
  0x5f, 0xce, 0x1f, 0xbd, 0xfa, 0x9c, 0x78, 0x3e, 0x8a, 0x14, 0x72, 0xbe,
  0x50, 0x85, 0x49, 0xbe, 0x94, 0x64, 0x13, 0xbe, 0xd6, 0xec, 0x17, 0xbd,
  0xd0, 0x8d, 0xf0, 0x3d, 0x79, 0xad, 0xb7, 0x3d, 0x93, 0x01, 0x53, 0xbe,
  0xca, 0xa4, 0x10, 0x3e, 0x78, 0xb5, 0x04, 0x3d, 0xe6, 0x57, 0xc6, 0x3d,
  0x3f, 0x3e, 0x4e, 0x3e, 0x94, 0x28, 0xef, 0xbd, 0xdb, 0xec, 0x0f, 0xbd,
  0x6f, 0x93, 0x86, 0xbe, 0x05, 0x99, 0x0f, 0x3e, 0x88, 0xbc, 0xfd, 0xbd,
  0x94, 0x88, 0xe3, 0xbd, 0x7f, 0x84, 0x77, 0xbd, 0x42, 0xa7, 0xaf, 0xbc,
  0x1a, 0x54, 0x18, 0x3e, 0x3a, 0x09, 0x9a, 0xbd, 0xaf, 0x13, 0x3b, 0xbe,
  0xfd, 0xaa, 0x9d, 0xbe, 0xa8, 0x4b, 0x31, 0x3c, 0x6a, 0xd9, 0x69, 0xbe,
  0x2f, 0xa5, 0x5e, 0x3e, 0x0c, 0x68, 0x85, 0xbe, 0x7b, 0xb4, 0x23, 0x3e,
  0xa2, 0x32, 0xe9, 0xbd, 0x2c, 0xc5, 0x43, 0xbe, 0x2c, 0xb7, 0xfd, 0x3d,
  0x38, 0x1d, 0x70, 0xbe, 0xf3, 0x7d, 0x8b, 0xbd, 0x44, 0xe1, 0x5f, 0xbe,
  0xbc, 0xc3, 0x22, 0x3e, 0x51, 0xa0, 0x89, 0xbd, 0xe6, 0x81, 0xd7, 0xbd,
  0xd7, 0x70, 0x51, 0x3e, 0x4e, 0x70, 0x05, 0x3e, 0x7e, 0x4c, 0xd4, 0xbd,
  0xe2, 0x32, 0xaf, 0xbd, 0x5e, 0xcd, 0xfd, 0x3d, 0x47, 0x60, 0xd5, 0x3d,
  0x63, 0xe1, 0x1b, 0x3b, 0xae, 0x0c, 0x01, 0x3e, 0x9e, 0xec, 0x3a, 0xbe,
  0xac, 0x2d, 0x81, 0xbc, 0x86, 0x41, 0x5c, 0xbe, 0xc5, 0x26, 0xaf, 0xbc,
  0x02, 0x6c, 0x77, 0xbd, 0x47, 0x8e, 0x63, 0xbe, 0xdd, 0x57, 0xed, 0xbc,
  0x71, 0x24, 0x86, 0x3e, 0x80, 0xf9, 0xd8, 0xbc, 0x11, 0x8c, 0xb2, 0x3a,
  0x67, 0xe8, 0x7d, 0xbd, 0xfe, 0xb3, 0x48, 0xbc, 0x9a, 0xb9, 0x1f, 0xbd,
  0xb1, 0x90, 0xa1, 0xbd, 0x18, 0x05, 0x50, 0x3d, 0xb1, 0x4e, 0x08, 0x3e,
  0xa0, 0xcb, 0xd8, 0x3d, 0x7f, 0x9a, 0x17, 0xbd, 0xb4, 0x29, 0x99, 0x3c,
  0x45, 0x6c, 0x6d, 0xbe, 0x0d, 0xfe, 0x0f, 0x3e, 0x58, 0xb2, 0x71, 0xbe,
  0x9c, 0x21, 0x9e, 0xbd, 0x4a, 0x03, 0x7f, 0xbd, 0x01, 0xef, 0x79, 0xbe,
  0xf7, 0x5a, 0xe7, 0xbc, 0xbe, 0x42, 0x5c, 0xbe, 0x83, 0xcf, 0x74, 0x3d,
  0x25, 0x8e, 0x25, 0x3d, 0x56, 0xd6, 0x17, 0xbe, 0x57, 0x26, 0x57, 0x3e,
  0xb8, 0xe2, 0xc5, 0x3c, 0x82, 0xc0, 0x16, 0xbe, 0xe3, 0x17, 0x17, 0x3e,
  0x74, 0x8e, 0x27, 0xbe, 0x51, 0xeb, 0x3a, 0xbd, 0x9f, 0xfa, 0x3f, 0xbe,
  0x13, 0x7b, 0x37, 0xbe, 0x0d, 0xc9, 0x43, 0xbe, 0xf1, 0x0c, 0x48, 0x3e,
  0xc5, 0x4a, 0x6c, 0x3e, 0x24, 0x04, 0x20, 0xbe, 0x61, 0xca, 0x7f, 0x3e,
  0x10, 0x5e, 0x4e, 0xbe, 0x65, 0x0b, 0x4b, 0xbe, 0xfa, 0x95, 0x29, 0xbe,
  0x91, 0xed, 0xce, 0x3d, 0xad, 0xf7, 0x14, 0xbd, 0x7d, 0xf0, 0xd8, 0xbd,
  0x31, 0x2b, 0x24, 0x3d, 0xf4, 0x15, 0xd1, 0xbc, 0x8e, 0xf1, 0x0f, 0x3e,
  0x92, 0x3e, 0x12, 0xbe, 0xee, 0x51, 0xf1, 0x3d, 0x10, 0x96, 0x75, 0xbd,
  0x49, 0x95, 0x13, 0x3e, 0xed, 0x03, 0x50, 0x3d, 0x91, 0x51, 0x03, 0xbd,
  0xda, 0x53, 0x2d, 0x3e, 0x43, 0xb5, 0x19, 0xbe, 0xc9, 0x2e, 0x0a, 0xbd,
  0xba, 0xcc, 0x9a, 0x3d, 0x7e, 0x5e, 0xc3, 0xbd, 0xca, 0x25, 0x48, 0xba,
  0x05, 0x1a, 0x62, 0x3e, 0x63, 0x99, 0xec, 0x3d, 0x39, 0x86, 0x52, 0xbd,
  0x0d, 0x26, 0xc7, 0xbc, 0xee, 0x2f, 0x86, 0x3e, 0x26, 0x77, 0xc3, 0xbd,
  0x8b, 0x40, 0x59, 0xbe, 0x9c, 0x58, 0x6e, 0xbd, 0x60, 0x94, 0x91, 0xbc,
  0x02, 0xa2, 0xa7, 0xbd, 0xf3, 0x1a, 0x0c, 0xbe, 0xcc, 0x25, 0x2c, 0x3e,
  0xa1, 0xe7, 0x6c, 0x3e, 0xfa, 0x3b, 0xfc, 0xbb, 0x8e, 0x43, 0x2e, 0xbe,
  0x22, 0x22, 0x4d, 0x3e, 0x50, 0xd7, 0xb5, 0x3d, 0xe1, 0x88, 0x9d, 0xbd,
  0x1e, 0xfd, 0x04, 0xbe, 0xfc, 0x7a, 0x1a, 0xbe, 0xb2, 0x5c, 0x80, 0xbe,
  0x9e, 0x4f, 0x55, 0xbe, 0x3c, 0x4d, 0x1b, 0xbe, 0xbd, 0xf1, 0x2d, 0xbe,
  0x99, 0x25, 0xf9, 0x3d, 0x08, 0x3c, 0x87, 0xbc, 0x7b, 0x4b, 0xfb, 0x3c,
  0xed, 0x59, 0x4e, 0xbe, 0x39, 0xe9, 0x5d, 0x3e, 0x35, 0x7e, 0x66, 0xbd,
  0x05, 0xc7, 0x25, 0xbe, 0xa3, 0x49, 0x04, 0x3e, 0x66, 0x81, 0x15, 0x3e,
  0xf1, 0x32, 0xac, 0xbd, 0x50, 0xf3, 0x16, 0xbd, 0x19, 0x0b, 0x16, 0x3e,
  0x4f, 0xee, 0xb0, 0x3d, 0x59, 0xc4, 0xbf, 0x3a, 0x10, 0x20, 0x45, 0xbe,
  0xac, 0x06, 0x1c, 0xbe, 0x0e, 0x24, 0x74, 0xbe, 0x9e, 0xe6, 0x96, 0x3c,
  0x03, 0x8d, 0xe2, 0xbd, 0x95, 0x12, 0xd3, 0xbd, 0x78, 0xbb, 0x5f, 0x3d,
  0x4d, 0x22, 0x85, 0xbe, 0xb8, 0x36, 0x60, 0xbe, 0x74, 0xe9, 0xc7, 0xbd,
  0xcb, 0xca, 0x42, 0x3e, 0xed, 0x2e, 0x5f, 0xbe, 0x8d, 0xfa, 0x88, 0x3d,
  0x14, 0x5d, 0x01, 0x3e, 0x4c, 0x79, 0x80, 0x3d, 0xdf, 0xb4, 0x0d, 0x3d,
  0x68, 0x99, 0x07, 0x3e, 0x9b, 0x5a, 0xa6, 0x3c, 0xb9, 0xd5, 0x6a, 0xbe,
  0x7b, 0x14, 0x18, 0x3e, 0x14, 0xdd, 0x24, 0xbe, 0xf2, 0x0f, 0x75, 0xbe,
  0x17, 0x53, 0x56, 0xbd, 0xb5, 0xd4, 0x3e, 0x3e, 0xd4, 0x82, 0x08, 0x3e,
  0xe2, 0xab, 0x53, 0xbc, 0xb4, 0x3b, 0x85, 0xbd, 0xa1, 0x3e, 0x5a, 0x3d,
  0xb7, 0x64, 0x2c, 0x3e, 0x19, 0x6d, 0xbe, 0xbd, 0x84, 0x2d, 0x3b, 0xbd,
  0x14, 0x2d, 0xcf, 0x3d, 0x2a, 0x4d, 0x14, 0xbc, 0xfb, 0xab, 0xa1, 0xbc,
  0x6c, 0x97, 0x2b, 0x3e, 0xb8, 0x36, 0xc5, 0xbc, 0x10, 0x87, 0x7c, 0xbd,
  0x9d, 0x86, 0x23, 0xbe, 0x90, 0x80, 0x67, 0x3d, 0x74, 0x22, 0xb7, 0xbd,
  0x4e, 0xfc, 0x0b, 0xbe, 0x89, 0x9f, 0xb8, 0xbd, 0xdc, 0xff, 0x4d, 0x3e,
  0xed, 0xb1, 0x0d, 0x3d, 0xf7, 0xb8, 0x63, 0xbd, 0xdd, 0x78, 0x12, 0x3e,
  0x6a, 0xbb, 0x7a, 0xbc, 0xb0, 0x33, 0x0e, 0x3d, 0x2c, 0xcc, 0x8e, 0x3e,
  0x02, 0x51, 0x05, 0xbe, 0xdc, 0x42, 0xae, 0x3d, 0x63, 0x2e, 0x37, 0x3e,
  0x4f, 0x44, 0x8b, 0x3e, 0xa9, 0xc4, 0xa3, 0x3e, 0x73, 0x06, 0x38, 0x3e,
  0xb4, 0x2c, 0xf7, 0x3c, 0xe1, 0x34, 0x2b, 0xbe, 0x4c, 0xce, 0x16, 0x3d,
  0x99, 0x03, 0x14, 0x3d, 0x68, 0x39, 0x89, 0xbd, 0x00, 0x3b, 0xf1, 0x3b,
  0x4c, 0x32, 0xad, 0xbe, 0x19, 0xa3, 0xd5, 0xbc, 0xba, 0x8c, 0xf8, 0xbc,
  0x86, 0x49, 0x00, 0xbc, 0x1a, 0x34, 0xd0, 0xbb, 0x73, 0xe1, 0xbc, 0x3d,
  0x45, 0xd6, 0x0c, 0x3e, 0xd7, 0x1c, 0x59, 0xbe, 0xd0, 0xf3, 0x03, 0xbe,
  0x98, 0x76, 0x93, 0xbd, 0xc5, 0x68, 0xb1, 0x3d, 0xd1, 0x24, 0x43, 0x3e,
  0xdf, 0x2b, 0xdb, 0xbd, 0x8b, 0x85, 0x8b, 0xbd, 0x69, 0xe2, 0x80, 0xbd,
  0x70, 0x27, 0x7d, 0x3d, 0xb1, 0xef, 0xd4, 0xbd, 0x33, 0xa3, 0x87, 0x3d,
  0x86, 0xbc, 0x37, 0x3d, 0x4b, 0x46, 0xb0, 0x3d, 0xa9, 0x75, 0xe3, 0xbd,
  0xf3, 0xc7, 0x91, 0xbd, 0x58, 0x2c, 0x85, 0xbc, 0x6d, 0xb2, 0x4a, 0x3e,
  0x0a, 0xa1, 0x45, 0xbc, 0x8e, 0x7b, 0x32, 0xba, 0x00, 0x6f, 0x20, 0xbe,
  0xcb, 0x23, 0xfb, 0xbc, 0x03, 0x73, 0xdd, 0xbd, 0xed, 0x9e, 0x1f, 0x3e,
  0x7a, 0x61, 0xfe, 0x3c, 0x1b, 0xeb, 0x38, 0x3e, 0xa4, 0x55, 0xec, 0x3c,
  0x16, 0x09, 0x55, 0x3e, 0xa5, 0x6a, 0x80, 0x3d, 0xb8, 0x2d, 0x2f, 0xbe,
  0x82, 0xc3, 0xcf, 0xbd, 0xe8, 0xf9, 0xf1, 0x3d, 0xc8, 0x61, 0xc3, 0x3c,
  0x2a, 0x5a, 0x8e, 0x3e, 0x0b, 0x9b, 0x03, 0x3e, 0x06, 0x6a, 0x30, 0x3e,
  0x33, 0x5a, 0xc0, 0xbe, 0xd7, 0x86, 0x03, 0x3e, 0x04, 0xc5, 0x6c, 0xbd,
  0x00, 0xb8, 0xe3, 0x3d, 0xb1, 0xce, 0xc1, 0xbd, 0xd1, 0xa2, 0x5e, 0xbe,
  0x3e, 0xce, 0x54, 0xbe, 0x53, 0x8f, 0x13, 0xbe, 0xfc, 0x62, 0x8c, 0xbe,
  0x94, 0xd2, 0x3d, 0xbe, 0xa2, 0x17, 0x8a, 0x3d, 0xc5, 0x03, 0xff, 0xbd,
  0x05, 0xab, 0x13, 0xbe, 0xd8, 0x0a, 0x9d, 0x3d, 0x10, 0xeb, 0xb5, 0x3c,
  0x9d, 0x2d, 0x04, 0x3e, 0xe8, 0x65, 0xa0, 0x3d, 0x83, 0x60, 0xcc, 0x3d,
  0x9a, 0x1e, 0x19, 0x3e, 0xd9, 0x76, 0x53, 0xbe, 0x25, 0x92, 0x68, 0xbd,
  0x54, 0x00, 0x75, 0x3e, 0x5e, 0xf1, 0x4e, 0x3e, 0x27, 0x2b, 0x08, 0xbd,
  0xdb, 0x4b, 0x12, 0xbe, 0xfa, 0xab, 0xa1, 0x3c, 0x5a, 0x7b, 0x31, 0xbe,
  0x75, 0x05, 0xa0, 0xbb, 0x29, 0x4d, 0x8f, 0x3c, 0x76, 0x39, 0x81, 0x3d,
  0xd7, 0xc5, 0x08, 0x3e, 0xb0, 0x3c, 0x6b, 0xbd, 0xc6, 0x04, 0x70, 0xbe,
  0x2b, 0x0f, 0xa8, 0xbd, 0xeb, 0x85, 0xcd, 0xbd, 0x8e, 0xfc, 0x2d, 0xbd,
  0x84, 0xc8, 0xc4, 0xbd, 0x99, 0x69, 0xce, 0x3d, 0xb1, 0x19, 0x19, 0x3e,
  0x10, 0x2b, 0x51, 0x3d, 0x4d, 0xdc, 0x9b, 0xbd, 0xff, 0x12, 0x72, 0x3c,
  0x46, 0x58, 0xcf, 0xbd, 0x9c, 0x7d, 0xcd, 0x3d, 0x2a, 0xe3, 0x05, 0x3e,
  0xd4, 0x9f, 0x49, 0x3d, 0xa8, 0x73, 0x87, 0x3d, 0xec, 0x08, 0xeb, 0xbd,
  0xa4, 0x6b, 0x28, 0x3d, 0x1e, 0x23, 0x5d, 0x3e, 0x79, 0x71, 0xac, 0x3d,
  0x1f, 0xda, 0x08, 0xbe, 0x8d, 0x5e, 0x1d, 0x3e, 0xc1, 0x74, 0x86, 0x3c,
  0x14, 0xb8, 0x49, 0x3e, 0xc1, 0xbe, 0x42, 0xbd, 0xab, 0x5e, 0x77, 0xbd,
  0xc4, 0x29, 0x20, 0xbb, 0x2f, 0x95, 0xbd, 0xbd, 0xe0, 0x84, 0xfc, 0x3d,
  0xff, 0x5d, 0x88, 0xbd, 0xdf, 0x79, 0x26, 0x3d, 0x93, 0x46, 0x34, 0x3d,
  0x8f, 0xa7, 0x2d, 0x3e, 0xdf, 0x2c, 0x52, 0xbe, 0x35, 0xab, 0x25, 0x3d,
  0x48, 0x85, 0xc3, 0xbd, 0xf4, 0x67, 0x3a, 0x3e, 0xbc, 0xa1, 0x67, 0x3d,
  0xf0, 0x32, 0x71, 0x3d, 0xc0, 0x7d, 0xab, 0xbd, 0x15, 0xd6, 0x11, 0x3e,
  0x41, 0xfa, 0x6f, 0xbe, 0x34, 0x01, 0x6d, 0xbe, 0xcc, 0xab, 0x07, 0x3e,
  0x8f, 0x64, 0xe0, 0xbd, 0xdb, 0x79, 0x41, 0xbe, 0x80, 0xdf, 0x29, 0x3e,
  0x27, 0x92, 0x9b, 0xbd, 0x95, 0xab, 0x35, 0xbe, 0xa8, 0x4c, 0x56, 0xbe,
  0x4e, 0x61, 0xb6, 0x3d, 0x9a, 0x0c, 0xf4, 0xbd, 0xec, 0x02, 0x5a, 0xbe,
  0x71, 0x57, 0x51, 0x3d, 0x14, 0xe3, 0x40, 0xbe, 0xf8, 0x5b, 0x4d, 0x3e,
  0x78, 0x33, 0x28, 0x3d, 0x50, 0x66, 0x3a, 0xbe, 0x26, 0xc6, 0x26, 0xbe,
  0xf1, 0x8e, 0x20, 0x3e, 0x70, 0xdd, 0x2f, 0xbe, 0x01, 0x19, 0x47, 0xbd,
  0x5a, 0xb2, 0xe9, 0xbb, 0xdf, 0x34, 0x91, 0xbe, 0x27, 0xa0, 0x2a, 0x3e,
  0x89, 0xdb, 0x3c, 0xbe, 0x9e, 0xd7, 0x1c, 0xbe, 0x11, 0x9f, 0xcb, 0xbd,
  0x3d, 0xa5, 0x04, 0x3e, 0xd9, 0x1b, 0xf9, 0x3d, 0x0d, 0x78, 0xa1, 0xbd,
  0xa7, 0x2e, 0x48, 0xbd, 0xd0, 0xaf, 0xba, 0xbc, 0xc6, 0x2c, 0x34, 0xbe,
  0x24, 0xd0, 0x3a, 0xbe, 0x83, 0x67, 0xf7, 0x3a, 0x99, 0xa3, 0xe3, 0xbb,
  0xe4, 0x18, 0x95, 0x3d, 0x9a, 0x66, 0x5d, 0xbe, 0xdb, 0x5b, 0xfa, 0x3d,
  0x0e, 0xdb, 0x18, 0x3d, 0x5e, 0xda, 0xa2, 0x3e, 0x07, 0x63, 0x91, 0x3d,
  0x14, 0x48, 0x12, 0xbe, 0x0a, 0xba, 0x28, 0xbe, 0x59, 0x4e, 0x2a, 0x3e,
  0x72, 0xdf, 0x33, 0x3e, 0x99, 0xa7, 0x78, 0xbb, 0x4d, 0x94, 0x4f, 0xbe,
  0xfa, 0xb5, 0xb9, 0xbc, 0xdc, 0x22, 0x3d, 0xbd, 0x47, 0x83, 0x18, 0xbe,
  0x80, 0xea, 0x25, 0x3d, 0xc0, 0xd9, 0x84, 0x3d, 0xdb, 0xa1, 0x63, 0x3c,
  0x71, 0x99, 0x69, 0xbd, 0xc4, 0x44, 0x96, 0x3d, 0x52, 0x2d, 0x2f, 0x3d,
  0xae, 0x12, 0x67, 0x3e, 0x7f, 0x66, 0x18, 0xbd, 0x8c, 0x9c, 0x04, 0x3e,
  0xff, 0xb5, 0x6d, 0x3e, 0x0f, 0x62, 0x91, 0x3d, 0x17, 0x74, 0x19, 0xbe,
  0x38, 0x8e, 0xe6, 0xbd, 0x0d, 0x20, 0x11, 0x3e, 0x66, 0x82, 0x59, 0x3e,
  0x67, 0xef, 0x73, 0xbe, 0x9f, 0x9d, 0xb9, 0x3d, 0xef, 0xc6, 0x92, 0xbe,
  0x9e, 0xee, 0x70, 0xbd, 0xf0, 0xfc, 0x07, 0xbd, 0x6d, 0x32, 0x85, 0xbd,
  0x47, 0xb5, 0x78, 0xbd, 0xa6, 0x0e, 0x23, 0x3e, 0xdf, 0x59, 0xbb, 0x3d,
  0xec, 0xa4, 0x06, 0x3e, 0x7b, 0x27, 0x49, 0xbe, 0xe8, 0x13, 0x3f, 0xbe,
  0x42, 0xdc, 0xd9, 0xbc, 0xaa, 0x82, 0x26, 0x3e, 0xc7, 0x47, 0x99, 0x3d,
  0x1e, 0x60, 0x37, 0xbe, 0x4a, 0x73, 0x40, 0x3e, 0xde, 0xa3, 0x20, 0xbe,
  0xcf, 0x6b, 0xf8, 0x3d, 0x38, 0xdb, 0x54, 0xbe, 0xb4, 0xc9, 0x66, 0xbc,
  0xf1, 0x36, 0xaf, 0x3c, 0x9f, 0x27, 0x82, 0x3e, 0x86, 0xa5, 0xdb, 0xbd,
  0xa6, 0x01, 0x84, 0xbe, 0x24, 0xe5, 0x4f, 0x3e, 0x69, 0xaf, 0x18, 0xbe,
  0x05, 0xb7, 0xb3, 0x3b, 0x90, 0x5d, 0x03, 0x3e, 0xf6, 0x84, 0x47, 0xbe,
  0xfc, 0x87, 0x20, 0xbe, 0xe8, 0x17, 0x6c, 0x3a, 0xfd, 0x76, 0x71, 0xbe,
  0x88, 0x31, 0x8d, 0xbd, 0xad, 0x70, 0x1b, 0x3e, 0x57, 0x03, 0xeb, 0xbd,
  0xc1, 0xd8, 0x52, 0x3e, 0x00, 0xf2, 0xc2, 0xbd, 0x3b, 0xdc, 0xc1, 0xbc,
  0xe1, 0xae, 0x87, 0xbe, 0x55, 0xba, 0x29, 0xbd, 0x57, 0xa3, 0x14, 0x3c,
  0x2e, 0xb7, 0xfb, 0xbc, 0xdd, 0x19, 0xf5, 0xbc, 0xf8, 0x65, 0x5b, 0xbd,
  0x29, 0xd1, 0x45, 0xbd, 0x67, 0x27, 0x4e, 0x3e, 0xff, 0xf3, 0x4b, 0x3e,
  0x6f, 0xc0, 0x6e, 0x3d, 0x40, 0xc7, 0x34, 0x3d, 0x99, 0x51, 0xf0, 0xbd,
  0x16, 0xd5, 0xaf, 0xbc, 0x65, 0xd3, 0x20, 0xbc, 0xd6, 0x14, 0xed, 0xbd,
  0x6f, 0xe7, 0x56, 0x3d, 0x99, 0xfa, 0x2e, 0x3e, 0x35, 0xef, 0xd8, 0x3b,
  0xbc, 0x06, 0x31, 0xbe, 0xef, 0xde, 0x83, 0xbd, 0xf1, 0x22, 0x0d, 0xbd,
  0x9c, 0xa8, 0x14, 0xbe, 0x7d, 0x19, 0x1e, 0xbc, 0xbc, 0x26, 0x9c, 0xbd,
  0x21, 0x86, 0x8c, 0x3e, 0xfe, 0x92, 0x0b, 0xbe, 0x06, 0x66, 0x2b, 0x3d,
  0xda, 0x05, 0x52, 0xbd, 0xec, 0xb9, 0x87, 0x3d, 0xb5, 0xac, 0x9a, 0x3d,
  0x1c, 0x02, 0x72, 0xbd, 0x5a, 0xf0, 0x30, 0xbe, 0x92, 0xff, 0x55, 0xbe,
  0xea, 0xda, 0xb4, 0x3c, 0xdd, 0x5c, 0x83, 0xbe, 0xe0, 0x5a, 0x02, 0x3d,
  0xb8, 0x8c, 0x98, 0xbd, 0xc0, 0x15, 0x17, 0x3e, 0xa5, 0xd3, 0x3e, 0xbe,
  0x9f, 0x54, 0x83, 0xbe, 0x3a, 0x5c, 0x61, 0x3e, 0x76, 0xf4, 0x41, 0x3d,
  0xba, 0x1d, 0x15, 0xbd, 0x9e, 0x43, 0xbc, 0x3d, 0x8e, 0x89, 0x22, 0xbe,
  0xe2, 0x8c, 0x59, 0xbe, 0xa0, 0x2b, 0xeb, 0x3d, 0x07, 0xac, 0x89, 0xbe,
  0x7d, 0x00, 0x16, 0xbd, 0x63, 0x99, 0x52, 0xbe, 0x61, 0x9c, 0x66, 0x3c,
  0x97, 0x1a, 0x85, 0x3d, 0xb5, 0xdf, 0x44, 0xbe, 0xec, 0xe7, 0x46, 0x3e,
  0xa9, 0x53, 0x00, 0xbe, 0xc5, 0xc9, 0x3a, 0x3e, 0x9d, 0xd8, 0x54, 0x3d,
  0xc6, 0xcc, 0x7a, 0xbe, 0x7b, 0xb1, 0x7d, 0xbe, 0xdf, 0xfd, 0xfa, 0x3c,
  0x9e, 0x45, 0xc5, 0x3d, 0xf1, 0xec, 0x3f, 0xbe, 0xc9, 0x9a, 0x85, 0xbe,
  0xf6, 0x30, 0x9f, 0xbe, 0xba, 0xdb, 0x29, 0x3e, 0x1b, 0x10, 0x05, 0xbd,
  0x2e, 0x8b, 0xa6, 0x3d, 0xd8, 0xb8, 0xf2, 0xbd, 0x19, 0x91, 0x0e, 0xbe,
  0x7c, 0x79, 0x51, 0x3e, 0xaf, 0xef, 0x25, 0xbe, 0x4e, 0xd6, 0x40, 0x3e,
  0x00, 0x4a, 0xe9, 0x3d, 0x9d, 0x8e, 0x37, 0xbe, 0xdc, 0x62, 0x50, 0x3e,
  0xdd, 0x27, 0x75, 0xbe, 0xd9, 0xed, 0x63, 0xbe, 0xf1, 0xc8, 0xc5, 0x3d,
  0xb8, 0x41, 0x90, 0x3d, 0x0f, 0x38, 0xad, 0x3d, 0xed, 0x97, 0x36, 0xbe,
  0x23, 0xfa, 0x4c, 0xbe, 0x00, 0x40, 0xff, 0xba, 0x58, 0x06, 0x12, 0x3e,
  0xe2, 0xba, 0xcf, 0xbb, 0x94, 0xa7, 0x64, 0xbd, 0x32, 0x0e, 0x5b, 0x3e,
  0xb1, 0x91, 0x97, 0xbe, 0xc0, 0x72, 0x63, 0xbe, 0x9a, 0x9e, 0x2c, 0x3e,
  0x56, 0x84, 0x5b, 0xbe, 0x4b, 0x03, 0x6e, 0xbd, 0x0b, 0x1a, 0x91, 0x3d,
  0x6f, 0x74, 0xc1, 0xbd, 0x7a, 0xb5, 0x82, 0x38, 0x4e, 0xca, 0x02, 0x3c,
  0x6c, 0xbe, 0x2b, 0x3e, 0x9b, 0xa8, 0x44, 0xbd, 0x7d, 0x99, 0x11, 0xbe,
  0x9c, 0x11, 0x8b, 0xbd, 0xb8, 0xf1, 0x27, 0xbe, 0x4f, 0x13, 0x30, 0x3e,
  0xe4, 0x6e, 0x17, 0x3e, 0x84, 0x4b, 0x8d, 0xbe, 0x66, 0x85, 0xf7, 0x3d,
  0xb4, 0xc0, 0x3e, 0xbe, 0x9e, 0x31, 0x22, 0xbd, 0xa7, 0x3a, 0x9e, 0xbe,
  0xe8, 0x07, 0xbd, 0xbd, 0x42, 0x89, 0xa3, 0xbe, 0xc3, 0x4a, 0x40, 0x3e,
  0xa3, 0x65, 0xba, 0x3d, 0x3f, 0x93, 0xb6, 0x3c, 0x9d, 0xc9, 0xd9, 0xbd,
  0x43, 0x85, 0x14, 0x3d, 0x9f, 0xc5, 0x5c, 0x3e, 0x7f, 0x63, 0x57, 0xbe,
  0x23, 0x88, 0x4d, 0x3e, 0x02, 0x05, 0x68, 0xbe, 0xe9, 0x1a, 0xd5, 0xbd,
  0xb4, 0xa6, 0xc0, 0xbd, 0xef, 0x23, 0xf8, 0xbc, 0x13, 0x71, 0x3f, 0xbe,
  0xb2, 0x33, 0xf6, 0xbc, 0xe1, 0x47, 0x1e, 0xbe, 0x5b, 0x8b, 0x35, 0xbd,
  0xa9, 0x94, 0x74, 0x3d, 0x67, 0xae, 0x24, 0x3d, 0xcd, 0xd5, 0xad, 0x3d,
  0xaa, 0x6f, 0xe1, 0xbd, 0xc8, 0xc6, 0x73, 0x3d, 0x2d, 0xef, 0x1a, 0x3e,
  0xb9, 0xea, 0x31, 0x3e, 0x2b, 0x86, 0x17, 0x3e, 0xa8, 0x7d, 0x21, 0x3e,
  0xec, 0xca, 0x7e, 0xbd, 0x96, 0xf2, 0x4b, 0x3e, 0xdf, 0x2f, 0xdf, 0x3d,
  0x9c, 0xae, 0x5b, 0xbe, 0xd2, 0x44, 0x9a, 0x3d, 0x0c, 0x13, 0x7c, 0x3d,
  0x28, 0xcd, 0x07, 0x3e, 0x12, 0x18, 0x3b, 0x3e, 0xf7, 0x4e, 0x0b, 0x3e,
  0x41, 0x6d, 0x80, 0xbe, 0x63, 0x53, 0x3e, 0xbc, 0x10, 0x23, 0xf9, 0x3d,
  0x3f, 0x13, 0x71, 0x3e, 0xf3, 0xd6, 0x13, 0x3a, 0xe1, 0x4a, 0x9c, 0xbe,
  0xd5, 0x39, 0x1e, 0xbe, 0x0f, 0xe8, 0x54, 0xbe, 0x1a, 0x26, 0x4b, 0x3e,
  0xc3, 0x1a, 0x85, 0xbd, 0x1c, 0x04, 0x9f, 0xbe, 0x39, 0x99, 0x84, 0x3d,
  0x2b, 0xa2, 0xce, 0x3d, 0xfa, 0x9f, 0x7e, 0x3e, 0xce, 0x0a, 0xf2, 0xbb,
  0x2f, 0x2c, 0xdf, 0x3c, 0xd6, 0xc4, 0x13, 0xbe, 0x32, 0xb2, 0x09, 0x3e,
  0x57, 0x0d, 0x49, 0xbe, 0xd6, 0x5a, 0xe1, 0xbc, 0x60, 0xd7, 0x9c, 0x3d,
  0x59, 0x16, 0x20, 0x3d, 0x3a, 0xc9, 0x8f, 0x3d, 0x1c, 0x1c, 0x0c, 0x3e,
  0xd0, 0xdb, 0x53, 0xbe, 0xb0, 0x76, 0x33, 0xbe, 0xe8, 0x9e, 0x9b, 0xbc,
  0x92, 0x0f, 0x30, 0xbe, 0x59, 0x49, 0x74, 0x3e, 0x3a, 0x4b, 0x14, 0xbd,
  0xc1, 0x5c, 0x7a, 0xbe, 0xd7, 0x60, 0x0b, 0x3d, 0x1b, 0xf6, 0xb0, 0xbc,
  0x68, 0x31, 0xd3, 0x3d, 0x94, 0xf8, 0x92, 0x3e, 0x35, 0x3e, 0x15, 0xbe,
  0x45, 0xea, 0xdb, 0x3d, 0xc0, 0x15, 0xa0, 0x3d, 0xcf, 0xbd, 0x21, 0xbe,
  0x9b, 0xe4, 0xe1, 0xbd, 0xbd, 0x51, 0x56, 0xbe, 0x1e, 0xa8, 0x49, 0xbe,
  0xad, 0xae, 0xdd, 0xbd, 0xa7, 0x91, 0x05, 0x3d, 0x5f, 0x98, 0x3a, 0xbe,
  0xf2, 0x68, 0x05, 0x3e, 0xdd, 0x27, 0xb6, 0x3d, 0x0a, 0x83, 0x84, 0xbe,
  0xc4, 0xc7, 0x03, 0x3e, 0x87, 0xec, 0xd3, 0xbd, 0xb6, 0x33, 0x7b, 0x3e,
  0xe4, 0x55, 0x6a, 0xbe, 0xdd, 0xcf, 0xe0, 0xbd, 0xff, 0xba, 0x1b, 0x3e,
  0x80, 0x57, 0x54, 0x3e, 0x1f, 0x27, 0x16, 0x3e, 0xfb, 0xad, 0xe5, 0xbd,
  0x50, 0xd6, 0xe2, 0x3d, 0xf0, 0xfc, 0xfb, 0xbd, 0x3b, 0x1d, 0x55, 0xbe,
  0x56, 0xc5, 0xc9, 0x3e, 0x37, 0x54, 0x5b, 0xbb, 0x26, 0x89, 0x89, 0xbc,
  0x23, 0xa4, 0xc6, 0x3d, 0x50, 0x54, 0x5f, 0xbe, 0x85, 0x8f, 0x84, 0xbd,
  0xf8, 0x21, 0x2c, 0xbe, 0x27, 0x11, 0xd2, 0x3b, 0x65, 0xb1, 0x08, 0xbe,
  0x64, 0x44, 0xa1, 0x3c, 0xb7, 0x55, 0x2f, 0xbe, 0xe0, 0x08, 0x3a, 0x3d,
  0xa0, 0xe6, 0x26, 0xbe, 0x99, 0x15, 0x67, 0x3e, 0xf1, 0x74, 0x4b, 0xbc,
  0xa0, 0x4d, 0x1a, 0xbe, 0xc9, 0x4a, 0x95, 0xbe, 0xfa, 0xca, 0x1f, 0xbc,
  0x73, 0x77, 0x80, 0xbe, 0xfa, 0x5b, 0x1c, 0xbe, 0x30, 0x83, 0x78, 0xbe,
  0x60, 0x96, 0x17, 0xbc, 0x87, 0x5e, 0xa6, 0x3c, 0xb3, 0x0d, 0xb7, 0x3d,
  0xb4, 0xa3, 0x45, 0xbe, 0xfc, 0x38, 0x98, 0x39, 0x68, 0x0b, 0x7a, 0xbd,
  0x34, 0xfa, 0x35, 0xbe, 0xdf, 0x4a, 0x01, 0xbe, 0x16, 0x73, 0x61, 0x3e,
  0x56, 0xb6, 0xe2, 0x3d, 0xa0, 0x96, 0x66, 0xbe, 0x1e, 0x34, 0x63, 0xbe,
  0xf5, 0xd6, 0x0c, 0x3e, 0xfe, 0x63, 0x8b, 0xbd, 0xd9, 0xc7, 0x95, 0xbd,
  0xf5, 0x14, 0xc5, 0x3d, 0xb8, 0x66, 0x7f, 0xbe, 0xcd, 0x87, 0x50, 0xbd,
  0xb2, 0x76, 0x94, 0x3b, 0xe4, 0x12, 0x22, 0xb9, 0x1e, 0x92, 0x62, 0x3e,
  0x2a, 0x69, 0x6c, 0xbe, 0x1a, 0x7f, 0xd2, 0xbc, 0x2d, 0xb6, 0xe4, 0x3d,
  0x87, 0x86, 0x39, 0x3e, 0xce, 0x2e, 0xb9, 0xbd, 0x3b, 0x4b, 0x81, 0x3e,
  0x82, 0xe9, 0x7b, 0xbe, 0xa2, 0x95, 0x27, 0xbe, 0x4f, 0xce, 0x26, 0xbe,
  0x53, 0x41, 0x79, 0xbc, 0xec, 0x16, 0xe6, 0xbc, 0x98, 0x5d, 0x4d, 0xbe,
  0xe9, 0x93, 0x69, 0xbd, 0xc9, 0xe6, 0x24, 0xbe, 0x84, 0xda, 0x84, 0xbe,
  0x6c, 0xe2, 0x95, 0xbc, 0xe8, 0x54, 0x82, 0xbe, 0xf5, 0xd1, 0x9f, 0xbc,
  0x56, 0x59, 0x8f, 0x3e, 0x96, 0xcc, 0x0b, 0x3e, 0x60, 0x2d, 0xc4, 0x3d,
  0x5b, 0x13, 0xa8, 0xbc, 0x58, 0x04, 0x92, 0x3d, 0xdb, 0xeb, 0x9b, 0xbd,
  0x35, 0x80, 0x0b, 0x3e, 0x61, 0xe0, 0x41, 0x3d, 0x79, 0xd9, 0xd6, 0xbd,
  0x13, 0x08, 0x18, 0xbe, 0xc8, 0x48, 0x9a, 0x3d, 0x2c, 0x6f, 0x67, 0x3d,
  0x2d, 0xe9, 0x22, 0xbc, 0x1d, 0x54, 0xbc, 0x3d, 0x10, 0x34, 0x69, 0xbe,
  0x85, 0x40, 0x8a, 0xbe, 0x91, 0x7f, 0x3d, 0xbd, 0xb9, 0x04, 0x2b, 0x3d,
  0xb7, 0xd6, 0x66, 0xbd, 0x19, 0xb0, 0x02, 0x3e, 0x74, 0x8a, 0x4a, 0xbe,
  0x4e, 0xa5, 0x79, 0xbc, 0x57, 0xf4, 0x2f, 0xbd, 0xdd, 0x7f, 0x44, 0xbd,
  0xfd, 0xfa, 0x38, 0xbe, 0x80, 0x6c, 0x5b, 0x3d, 0x96, 0x40, 0x44, 0xbc,
  0x43, 0x50, 0x2f, 0x3d, 0x00, 0x19, 0x05, 0xbe, 0xc9, 0x1a, 0x83, 0xbe,
  0x49, 0xa4, 0x47, 0xbd, 0xae, 0x9e, 0x08, 0x3e, 0xd5, 0xa7, 0x2e, 0x3e,
  0x65, 0xbf, 0xc8, 0xbd, 0x43, 0x8d, 0xcb, 0xbd, 0x9b, 0x45, 0x26, 0xbe,
  0x36, 0xa0, 0x8d, 0x3d, 0x13, 0x54, 0x07, 0x3e, 0x4e, 0x5e, 0x16, 0x3e,
  0x78, 0xce, 0xe2, 0x3d, 0x98, 0x10, 0x08, 0xbe, 0xd5, 0xc4, 0x16, 0x3e,
  0x4d, 0x7b, 0x70, 0x3b, 0xe2, 0xed, 0x81, 0xbe, 0x92, 0x70, 0x6a, 0xbe,
  0x2a, 0x48, 0x66, 0xbe, 0x8e, 0x74, 0x39, 0xbe, 0xec, 0xf7, 0xbd, 0x3c,
  0x2a, 0x73, 0x67, 0xbe, 0x33, 0xd0, 0xda, 0x3d, 0xe8, 0x9d, 0x73, 0xbc,
  0x83, 0x92, 0xa3, 0xba, 0xd7, 0xa9, 0xf0, 0x3d, 0x0e, 0x2c, 0x4e, 0xbe,
  0x1e, 0xc9, 0x51, 0xbe, 0xe6, 0x0e, 0x0d, 0x3e, 0xee, 0x56, 0x35, 0x3e,
  0xca, 0x84, 0xd7, 0x3c, 0x04, 0x0f, 0x35, 0x3e, 0x24, 0x2a, 0xe1, 0x3d,
  0x65, 0x2e, 0x72, 0xbe, 0xbf, 0xcd, 0xfc, 0x3b, 0x57, 0xff, 0x03, 0xbe,
  0x7f, 0x76, 0x55, 0xbe, 0x22, 0xaf, 0x7b, 0xbe, 0xc7, 0x37, 0x42, 0xbe,
  0x18, 0xb1, 0x8b, 0x3d, 0xcb, 0x88, 0x13, 0x3d, 0x00, 0x4c, 0x6a, 0x3a,
  0xf0, 0x21, 0x79, 0xbe, 0x05, 0xd3, 0x83, 0x3d, 0x49, 0xc6, 0x44, 0x3e,
  0xe2, 0x2d, 0x19, 0x3e, 0x7c, 0x3d, 0xe7, 0xbd, 0x80, 0xcd, 0xc8, 0xbc,
  0x2a, 0x76, 0xd5, 0x3d, 0xec, 0x17, 0xe0, 0x3d, 0x21, 0x66, 0x45, 0x3b,
  0x73, 0x80, 0x4b, 0xbe, 0xaf, 0x68, 0xdd, 0x3d, 0xab, 0x2a, 0x50, 0x3d,
  0xf9, 0x84, 0xac, 0xbd, 0xed, 0xa1, 0x94, 0x3c, 0x11, 0x21, 0x44, 0xbe,
  0x1f, 0x31, 0x5a, 0x3e, 0x80, 0x03, 0x48, 0xbc, 0xfa, 0x84, 0xa6, 0xbc,
  0xa7, 0x63, 0x80, 0xbe, 0xc4, 0x6b, 0x5a, 0xbe, 0xcc, 0x84, 0xe0, 0x3d,
  0xf9, 0x15, 0x95, 0xbd, 0x6e, 0x09, 0xa7, 0xbd, 0x90, 0x42, 0x24, 0x3e,
  0xe9, 0x30, 0x2f, 0xbe, 0xb1, 0x06, 0xb4, 0x3d, 0x82, 0x7d, 0x7e, 0xbd,
  0xa6, 0x12, 0x58, 0xbe, 0xde, 0x84, 0xdf, 0xbd, 0x00, 0x52, 0xc4, 0xbb,
  0x6b, 0x7e, 0xf3, 0x3d, 0x0f, 0xa7, 0xcb, 0xbd, 0xdd, 0xe8, 0x16, 0x3d,
  0xe8, 0xae, 0xfd, 0xbd, 0x44, 0xa4, 0x4f, 0x3e, 0x43, 0x48, 0x5d, 0xbe,
  0x7a, 0xb4, 0xad, 0xbc, 0xf3, 0x64, 0x6c, 0xbe, 0x9d, 0x5e, 0xc9, 0xba,
  0xb6, 0x6f, 0x2f, 0xbe, 0xe7, 0xa2, 0x7a, 0x3e, 0x14, 0xf3, 0x05, 0xbd,
  0xca, 0xc5, 0xec, 0xbd, 0xc7, 0xdf, 0xfc, 0x3d, 0x89, 0x12, 0x7b, 0xbe,
  0x17, 0x9b, 0x30, 0xbd, 0x89, 0x9d, 0xd3, 0x3d, 0x32, 0x62, 0x7a, 0xbd,
  0x7d, 0x78, 0x43, 0x3e, 0x51, 0xaf, 0x89, 0xbe, 0xb9, 0x80, 0x42, 0x3d,
  0x56, 0x66, 0x46, 0xbe, 0x93, 0x3b, 0xfd, 0x3d, 0x49, 0xe7, 0x31, 0x3d,
  0x62, 0xb5, 0x0d, 0xbe, 0x77, 0x6b, 0xc1, 0x3d, 0x08, 0xff, 0x1a, 0xbe,
  0x29, 0xcb, 0xed, 0x3d, 0x9d, 0x13, 0x26, 0xbd, 0xc3, 0x6a, 0xca, 0xbb,
  0x34, 0x00, 0x6e, 0xbe, 0xe8, 0xbf, 0xed, 0xbd, 0x16, 0xac, 0x14, 0xbd,
  0x60, 0xd3, 0xa5, 0x3c, 0x92, 0x1f, 0xb4, 0xbd, 0xc2, 0xac, 0x07, 0x3e,
  0xc5, 0x3c, 0x8f, 0x3d, 0x59, 0xfa, 0x33, 0x3d, 0xc4, 0x14, 0x8b, 0xbe,
  0x30, 0x0a, 0x7e, 0x3d, 0x82, 0x28, 0x1d, 0x3e, 0x1f, 0x4a, 0xdd, 0xbd,
  0x6d, 0xfd, 0x8c, 0xbe, 0x3d, 0x12, 0xea, 0xbc, 0xf4, 0x63, 0x34, 0xbe,
  0x51, 0x43, 0x94, 0x3d, 0x63, 0x4f, 0xa1, 0xbd, 0x14, 0x2f, 0x1b, 0xbd,
  0x1f, 0xb6, 0x09, 0xbe, 0x5f, 0xe6, 0x3e, 0x3d, 0xdd, 0x99, 0x5f, 0xbe,
  0x64, 0xb9, 0x07, 0xbd, 0x97, 0x5a, 0x08, 0x3e, 0x67, 0x5a, 0x13, 0x3e,
  0x48, 0x19, 0x6f, 0x3e, 0xf5, 0x69, 0x43, 0xbe, 0x77, 0xea, 0xab, 0xbd,
  0x30, 0xe9, 0x4c, 0x3e, 0xb6, 0x7e, 0xaa, 0x3e, 0xf9, 0xfd, 0x00, 0x3e,
  0x5f, 0xc9, 0x23, 0xbe, 0xd4, 0x56, 0x5a, 0x3d, 0x3c, 0xb2, 0x1e, 0x3e,
  0xfb, 0xb2, 0x94, 0xbd, 0x0a, 0x7a, 0x9a, 0xbe, 0x25, 0x67, 0x2a, 0x3c,
  0x45, 0x85, 0x20, 0xbe, 0x23, 0xef, 0x6c, 0x3d, 0x6a, 0x9e, 0xbe, 0x3c,
